// Auto-generated by gen_fw_data.py
// Data dir: small_mlp_data, Image: img_0000, Label: 7
// Total data: 13688 bytes

#include <stdint.h>

const uint32_t fc1_weight_chunks[3136] = {
    0x03ff0303, 0x02fe01ff, 0x0103fd03, 0x08150202, 0x0102fdfe, 0x02fe03fe, 0xfd02fd02, 0x0f0ef0ed,
    0x01000000, 0x0001feff, 0xff0001fe, 0xfffcfcfa, 0x00ff0301, 0x01000202, 0xff00fd00, 0x16180f0a,
    0x0001ff01, 0xfefdfefe, 0xfd030001, 0x141a00fd, 0x020301ff, 0x00feff03, 0x0300feff, 0x00ff0401,
    0x03010002, 0x0103ffff, 0xfefd01fd, 0x0602edea, 0x01fd03ff, 0xff0102fd, 0xfd020301, 0xfaf90101,
    0x020303fe, 0xff000100, 0x020200fd, 0x050d1715, 0xfe01ff02, 0xfdff02fe, 0xfe010000, 0xf3ed030a,
    0x020003ff, 0xfffd0000, 0xff010200, 0x0304f3f0, 0x03fd0102, 0x03ffff00, 0xfeff0002, 0xf5ee0e13,
    0xfdfd02fe, 0xfdfdff03, 0xfffd0003, 0x00fce4e5, 0x02fefefd, 0x03fe0103, 0x0103ff03, 0x01fdfffe,
    0xfefefdfd, 0xff0001fd, 0x00ff0200, 0xfef61a19, 0xff00feff, 0x03030202, 0x00fffd03, 0x0b0feaea,
    0x01fe0103, 0x02ff00fe, 0xfefffefd, 0xfd03fd00, 0x02fd01ff, 0x0201fdff, 0x01fefe03, 0xff020101,
    0x00000200, 0x02fe0301, 0xfe01fe01, 0x03fefeff, 0x000303fe, 0x00fffffd, 0xffff01fd, 0xfefdfffe,
    0x03ff03fd, 0xff0302ff, 0x02fd02ff, 0xfffe03fe, 0xfe01ff01, 0xfd0303fe, 0x03010103, 0xff02ff00,
    0xfffd0303, 0x01ff0300, 0x03fefe02, 0xfffd0200, 0x00ffff00, 0x01ffff03, 0x000303ff, 0x010301fe,
    0xffff0002, 0x0301fdfe, 0xffff0000, 0xff0101ff, 0x00030101, 0x01fd0000, 0x03fd0003, 0x01020301,
    0x0302fffd, 0x02ff01fe, 0x00fdfdff, 0x0203fe01, 0x01010301, 0xfefefdfd, 0xfefffefe, 0x01000001,
    0xff000201, 0xfdfdfeff, 0x00030201, 0xff0100ff, 0x00fffd02, 0x0000fe03, 0xfffffefe, 0xfe0000ff,
    0x010103ff, 0x0302fd02, 0x03fd0202, 0x0303fd01, 0xfe0000fd, 0xfdfdfd03, 0x03fefffd, 0xfd030202,
    0xf4f0f6fb, 0xd8e8e7ef, 0xd504f4e2, 0xd1c4cec9, 0xe8e7f2f6, 0xf2e3f3f8, 0x2c1fedee, 0xd1ed1634,
    0xfdf900fb, 0xfaf7fbfc, 0xe0fdfdf6, 0xe707d0ca, 0x25291007, 0x12161f1d, 0x31f51b23, 0x1d293d46,
    0x27270903, 0xf30d1713, 0x19f2f8f5, 0x171e2b31, 0x1f210a05, 0x2c0a1114, 0x2e2c2d31, 0x0a121413,
    0xd6ddeff9, 0xeef7f7e8, 0xd2fbfde7, 0xd8e1f3f9, 0xe4e3f905, 0xe600faed, 0xf021e8e7, 0x0614e1d6,
    0x29240f0d, 0x121d1f1f, 0x1af71819, 0x362ef9ef, 0xdddefa07, 0x1f160b00, 0xee09271b, 0xf7030aef,
    0xf4fdf4f9, 0x15def704, 0x271e0e19, 0xdddb161e, 0x22241309, 0xfe332d25, 0xfd0f0dfd, 0x38312208,
    0xd6d7f3fa, 0xd5dbddde, 0xd9feced2, 0xd8c7cfcf, 0xfefffefe, 0xf1f6fd01, 0xe7ebeef3, 0xfa06f8f4,
    0x2e271b10, 0x3d2f1c21, 0x05fa4c4b, 0x3d352b08, 0xdee5faf9, 0xfbfbf5e5, 0xeef5e5e5, 0xccd71022,
    0xefe1e8ed, 0x010103fd, 0xed010001, 0xf7d6eadb, 0x02eadfd6, 0xfe0100fe, 0xf5eafd01, 0xf3dacde3,
    0xf4f1eddd, 0x0102fffd, 0xfbffff03, 0xf9fe0100, 0x221e1a2b, 0xfe02ff01, 0x1d1401fd, 0x33291712,
    0x14181528, 0x02fdff00, 0x1c0502fe, 0x191c0224, 0x0c09f8f9, 0x02fdffff, 0x1b0b0202, 0x30100325,
    0xdde3f1df, 0xffff03fe, 0xebf7fe00, 0xdbe701d7, 0xe4e90103, 0x02ff0300, 0xe8040201, 0xe8fdfceb,
    0x21221b34, 0xff01fdfd, 0x1b15feff, 0x1834161d, 0xfbefefe3, 0x02020203, 0x17f801fd, 0x01e7f01a,
    0xdedde2db, 0x03fe03ff, 0x16f30102, 0x11eee10d, 0x24252839, 0x02ff00fd, 0xf21102ff, 0x173224f7,
    0xe0e1e2d0, 0xffff0102, 0xddebfdff, 0xcddaf5da, 0xdbe1fbf8, 0xfdfffdff, 0xfafefd01, 0xdf1608f2,
    0x27262639, 0xfe01fdfe, 0x2915ff02, 0x463e2829, 0xf3f2e0d6, 0xfffe00ff, 0x01effd00, 0xe4ddf1ed,
    0xc2d6dedf, 0xfa06f9b0, 0x2b1706fb, 0x09060b1a, 0x0d08ffe6, 0x11081b05, 0xe7e3f10b, 0xfbcab4c2,
    0xc4bfcbec, 0xe8d5cde9, 0xe8bad0c7, 0xeef9f7ef, 0x5f4e5942, 0x2a180c28, 0x020a0316, 0x1417160f,
    0x2b393e28, 0x12fef512, 0x2b140d11, 0x30fbff22, 0xe8f0ec07, 0x120920ea, 0x0bfe1720, 0x0d0b0505,
    0x150424fb, 0x01220a1b, 0xe7f4f5fa, 0x031a2005, 0x182219fd, 0x565b3d07, 0x19fa162a, 0x1820211a,
    0x40301630, 0x371a1124, 0x3c352b28, 0x31312633, 0x08efd0e8, 0xf107100e, 0xe0e7f6f5, 0xda0b05e9,
    0xd2d3f1ef, 0xdddc03d8, 0xd3e5c5dd, 0xbfb4c9d0, 0x3a26243f, 0x12320831, 0x041b1b10, 0x2f2c211a,
    0x89b5c3be, 0xc7a2a3a0, 0x0b110bed, 0xd2dcdbfc, 0xf8f9eef0, 0xdcddcbe1, 0xc5eefbe6, 0xf6e1e2d8,
    0x0c09ff2e, 0x0607010b, 0x231b1208, 0x23391a18, 0xf8fa0cee, 0xd8e1e901, 0xe500f9ed, 0xece4f0e9,
    0xff02e4ff, 0xe50eff02, 0xf8dfeed3, 0xf006e4ea, 0x01032019, 0xf520fd00, 0xff050cd4, 0x1e180c1a,
    0xfe00f4fe, 0x0823fe01, 0xe2fed900, 0xbadbe9bf, 0x03fe2223, 0x190d0100, 0x1b23f8ff, 0x1c1a3d20,
    0xfffe1f27, 0x201602ff, 0x0d271127, 0xf5001901, 0x00fefc00, 0x140b00fd, 0xdde4db28, 0xdbf1e9d5,
    0x00001b21, 0xe6dffd03, 0xeae1f5e4, 0x110614e3, 0x02030413, 0xee260303, 0x0d02fff2, 0x02fd08fc,
    0x0001e3e9, 0x260701ff, 0x101b1534, 0x1a202228, 0xfd02e6dc, 0x03ec00ff, 0x140925cc, 0x0efae218,
    0x01011201, 0x0e1cfeff, 0xc9dadd02, 0xe0fcfcc1, 0x02fee7f5, 0xfbe2fe00, 0x0408f811, 0x2f1f2efe,
    0xfd02eaea, 0xdee9fe01, 0xaacae7e8, 0xa2a39b9e, 0x01ff211d, 0x0c220303, 0xd4efe9f4, 0xc1bed0c1,
    0x0303e7e5, 0x2edb0301, 0x081e0427, 0x0402f1fd, 0x00fe1814, 0xfce8ff02, 0x2a1a0e05, 0x383a2e35,
    0x1c1dedd8, 0x082d3931, 0xf10b0902, 0x010306ce, 0x181d332e, 0xdae1fb14, 0x9bb1b7d8, 0x01defbd4,
    0xb597abb7, 0xe3dde4cd, 0xe3edf0f2, 0xffdee0dd, 0x0b123825, 0x050a0f18, 0xf8fef6ee, 0x030efb11,
    0xfaf9110d, 0x07f7030e, 0x0f07fb10, 0xfe17202c, 0x222319f4, 0x3420281d, 0xff15253b, 0x011e2218,
    0x01110df6, 0xe9effc04, 0x190dfdd5, 0x0009f706, 0xf3f8f4f7, 0x10eedceb, 0x121a1e12, 0xffe6ff13,
    0x2818272d, 0x1f230c1f, 0x1dfe0d15, 0xfe29f31d, 0x0109fc10, 0xf4f7fffb, 0xfcf1050c, 0x02d2dbd6,
    0x050a0cf6, 0xdad6e8ef, 0xf1fedecf, 0x02f007e8, 0x081c1515, 0x070a07ff, 0x331f12f9, 0xfe1f1731,
    0xdab08188, 0x0106eee2, 0x030c11f3, 0x03eadd10, 0xcebccad3, 0x050af5db, 0x15181d14, 0x03e61907,
    0x020802f3, 0x162306ef, 0x4b1f1b13, 0xfd21f314, 0x11202038, 0xe7fb0908, 0xe0ebeffc, 0x030010fb,
    0xf41e0901, 0xfdefdcd2, 0xf4cee6ed, 0x02050cfb, 0x1d2507ff, 0x091111f9, 0x35313633, 0x241b2f2c,
    0x192500ff, 0xf6eac6ec, 0xd3f60d11, 0xe5e4ebdf, 0xd4f4fd00, 0xff2a1221, 0x080a0903, 0xf2fbfdff,
    0x0c0fff03, 0xcd130415, 0xf3ebe1dc, 0xf6fddde9, 0x08f3ea03, 0xece3ccec, 0xfef7f8e9, 0x18f7fef7,
    0xccd8fc03, 0xfcefe3e8, 0xfbf005f8, 0xff0f0d09, 0xda211103, 0x172e3c16, 0x010f0b25, 0xdef91f10,
    0x1c140503, 0x0417342c, 0x162e1123, 0x242b161d, 0x390b09fd, 0x09fc1e15, 0x120b0c16, 0xfd031216,
    0xf408ff03, 0xf5e0dbed, 0x15010cee, 0x0f18121a, 0xc3dcf902, 0x1602ee0f, 0x21292f18, 0xf702031b,
    0x35120001, 0xcec5daf4, 0xe9e2d8d2, 0xe7e9e2f2, 0x0422ff01, 0x0902f4f4, 0xf3ececf9, 0xf1fcf5ff,
    0x01defafe, 0xfce1df13, 0xfc09fef3, 0x1007f6fe, 0x10e905ff, 0x2924f7e0, 0x3f343211, 0x180f0a24,
    0x11242f1d, 0xfd15ff15, 0xfff203e1, 0xe121fd01, 0xfc02fc11, 0xbbd2d3e8, 0xe0e8cdbd, 0x2d28ff03,
    0x0feffd04, 0x17040b0a, 0x0ce3b4db, 0xf22f0300, 0xf3f4f6f4, 0xe3e3e3fb, 0x2d07dabd, 0xeb2bff01,
    0xf9f7e0e1, 0xdccbdbdb, 0xd8d3000b, 0xf80102fd, 0x07130b07, 0x1a14210d, 0xfe1f08ff, 0xdce60301,
    0xf2001503, 0xfef8e700, 0x22f2f9f4, 0xe4db0101, 0xf8eee9eb, 0x1b190800, 0x1adeecfd, 0x0f2d0001,
    0x0d13112e, 0xd9e602fe, 0x2e260cf3, 0x2539fe02, 0xf9f7f3f8, 0x0a19fefd, 0x1ff4eb03, 0x19e302fe,
    0xfaf70100, 0x120309fc, 0xe0150917, 0xe1f101ff, 0xf4fb1004, 0x1c010000, 0x24011f27, 0xd0e3fe03,
    0x01fef7eb, 0x0c0b07f8, 0xee222f40, 0xffe300ff, 0x0f100102, 0x1a1b0f0a, 0xe7182530, 0xef200200,
    0x08101308, 0x2b1c0d0d, 0x2e311a20, 0xe2e801ff, 0xfd17130f, 0xcfdee7eb, 0xdd0b1a06, 0x35ee0300,
    0x0dfd0ccb, 0xeff7ea06, 0xfff4f2f1, 0x2b261817, 0x08171a1f, 0xfe020809, 0x18111007, 0x030f0513,
    0xeb010ee6, 0xe9e2e1ed, 0x01ece8f8, 0xeef2efe8, 0xfbfbf614, 0x080bf601, 0x0106170c, 0x00f4f0f5,
    0x080814f9, 0xf0f10b18, 0xe2d7e4ea, 0xd5dfd9e0, 0xfe09f1af, 0xf408070a, 0x010e15f5, 0x0916080a,
    0xf3e9dbf9, 0x1802f904, 0x14171116, 0xfd08150e, 0x0a1a1f3e, 0xf7040604, 0xfefdefff, 0xfbfdeef7,
    0x0bef0926, 0xeefbfdf8, 0x0b050300, 0x20131b20, 0x191c1f19, 0x04fd111a, 0x0404050c, 0xfbf0ebf7,
    0xf3e4dcc4, 0xfbfcfdef, 0xf9020302, 0xfd010502, 0x1404df04, 0x10202329, 0xef01f109, 0xebeafdfb,
    0xeae60ae8, 0x290604f6, 0xf6fe0623, 0xdbe5faf4, 0x150e17ee, 0x13f90109, 0xfc070a12, 0xfaeef800,
    0xf5e7b7d6, 0x0e06eae6, 0x0814150c, 0x1d131b03, 0x0a030afb, 0x29211d0c, 0x06030b16, 0x08131820,
    0xfe0a1227, 0xf50413ef, 0xf613fe01, 0xebf704d6, 0xcdf3f9f0, 0xd6c9c1c1, 0x240c2303, 0xfc0ffb04,
    0x1704ffec, 0x2101e11d, 0x01dbdc01, 0xeff1f907, 0xfafd08fb, 0x1f1aefee, 0x0aeedf03, 0x01ece10b,
    0xd6d2c9ce, 0x1008c0ed, 0x2707e1ff, 0x1017030a, 0x1310030d, 0x12ef0efe, 0x011c1afe, 0xfcff17f3,
    0xece3eced, 0x171316fa, 0xffefe001, 0xfceceb06, 0x2c06faf3, 0x2608fe21, 0xf8e02402, 0xf90e0d1b,
    0x09fe0e22, 0x2d3cfd08, 0xec052502, 0xf5f3f905, 0xefeae2e8, 0xe70602fb, 0x2c1a2103, 0x0f1b160c,
    0x01110bff, 0xdaec070a, 0xe3f300fe, 0xf2e4f2e2, 0x10f0fef3, 0x22222120, 0xe9fa0003, 0x2a151b17,
    0xe8e7e7f1, 0x061b2102, 0x0524e2fe, 0xf3f407ea, 0x06110b02, 0xe6f63729, 0x28fdf9ff, 0x1208050c,
    0x02f60219, 0x28482618, 0xbfe8e0ff, 0xedebe1d6, 0xea080014, 0xe1f10bd8, 0x18242003, 0x010b190a,
    0xf005fae0, 0xf8eaf8f5, 0x2c190500, 0x141a1d2e, 0xfc02f6f3, 0x0d0a11fe, 0xfe190d19, 0xebfaf8ee,
    0xfae7eefa, 0xf3f9ecfa, 0xf0fc01f4, 0x101007fd, 0x211405fa, 0x1e252222, 0x05191720, 0xeef50808,
    0x0b020814, 0xf5fefb00, 0xeefcf2fc, 0xeaf9f2de, 0xf7f7edfe, 0x010305f8, 0x070800fe, 0x0814080c,
    0xfbf8fafd, 0x14100c07, 0xf6fb0f15, 0xe2e0eae8, 0xf4fafde8, 0xf2f0ecf0, 0xeaede3e5, 0x12f5e7eb,
    0x01f804fc, 0x07fcf400, 0x0a04fb00, 0x12f5f40e, 0x0a090e13, 0xfd00080c, 0xf3fcfcfd, 0xf7fafbf0,
    0x0efaf0fd, 0xf4f9fc0b, 0x0df6f6ed, 0x14190d03, 0xf7021921, 0xe3e6e2f8, 0xeed6f3e1, 0x0cf1e2e7,
    0x1d1b2009, 0x1313181c, 0x0c0f1715, 0xf9f0fe0b, 0x00070d08, 0xf8f9f800, 0x0ffcfffc, 0x0df90d06,
    0x02f3eeec, 0x1c17130c, 0x1b0b160f, 0x1d0f0415, 0x0a1c1f11, 0x1311130a, 0x0c0e0e13, 0x01050905,
    0x09f001f1, 0x0e160f00, 0x01fce3e0, 0xfcf2fdf4, 0xdad1adb1, 0x0de52bf4, 0x0602050f, 0xfe00fef1,
    0x21fae60d, 0x17e4c8fc, 0xefebf915, 0xf6f3fae9, 0x14f9e0eb, 0x011af203, 0xf9f6e103, 0x211705fd,
    0xee0fd900, 0x2f3d1403, 0x0e220205, 0xf8051005, 0xeaec291d, 0x01061206, 0x0f0904e2, 0x01fefefc,
    0x10f10bda, 0x0b1dc8fe, 0xeef4eb05, 0x03f5f4fa, 0x0dfbfa16, 0xe2d100f9, 0xf1f7090f, 0x03f3f2e2,
    0x29352f33, 0xddd925eb, 0x01f40608, 0xf6fbf20c, 0xfee5f6ea, 0x2a023dff, 0x1113101d, 0x01090efd,
    0xe6090512, 0xef0be8fd, 0xfdedf7d0, 0x1b220808, 0x201a1807, 0xf815da04, 0x291c1f0d, 0xf903172f,
    0xe1ff1300, 0x0833e702, 0xf2f4eee2, 0x14140d19, 0xf70e3f16, 0x2a2c1503, 0x12170b16, 0xeff9fa18,
    0x37315523, 0xd304cefe, 0xe0d7e1d1, 0x00fcf1f1, 0xea0a04fe, 0x0e1628f9, 0xff1e220d, 0x0c0a071e,
    0xf8effa02, 0x3616efdf, 0x25323433, 0x0aef0519, 0x10130301, 0x04121a16, 0xf9e6e0f7, 0xdcc5bece,
    0xf403fcfc, 0x0ff80102, 0x200a0618, 0xfd0de2f9, 0x2a252720, 0x0f141128, 0xdcf6ff01, 0x10eea8c2,
    0xfa050806, 0xf6010505, 0xff070506, 0xf001e8f9, 0xfb0afd03, 0x0d121004, 0x0208ff10, 0xeafa2214,
    0x10031603, 0xf60a070b, 0xe9eaefe1, 0x06fd03f9, 0xef02f1f2, 0xf7eef2df, 0xf4f6f3f4, 0x0622fe01,
    0xfc07f5ff, 0xf8e9e5f2, 0xf9030904, 0x3516160b, 0x09010a09, 0x060307fa, 0x11f0ed04, 0xf8e9edff,
    0xeaf80308, 0x0f0efdf0, 0x2b2a220b, 0xf6fa101d, 0xead7d9df, 0xefeaf2ec, 0xebfbfce7, 0x1e25170a,
    0x1e0f1d15, 0x0c11221e, 0x12080f16, 0xf41f2711, 0xf7f403ff, 0x0606f1ff, 0x100f13f9, 0xf9fc1e09,
    0x23180c09, 0x090a0c15, 0x1e0b0e08, 0x3efd3327, 0x0c1a1608, 0x0406fe09, 0xfc0f02fe, 0xf5fefff7,
    0x201c11fd, 0x0c03e1e2, 0x0dfd0705, 0xe4f0f2fe, 0x1ff92218, 0x09f9fa20, 0xf80a04ee, 0x22180d0b,
    0x07d9c6fc, 0x02051821, 0xfb03fa09, 0x010706fe, 0xf3f118ec, 0xfaf6f108, 0x00160505, 0x27251002,
    0x080535dd, 0x07130f01, 0xfe040f0f, 0x030afc02, 0x070c2c0b, 0xf8fff9d2, 0x04f3fcfc, 0x0d110310,
    0x0d07d424, 0xf4fdff07, 0xfbfe0501, 0x0e1317fe, 0xfe0dd6dc, 0xe4eb0205, 0xf8eef2d8, 0xedfa02f2,
    0xe2dee7e9, 0xfaf5fd04, 0x03f6eced, 0xf3001509, 0x1e1a2a11, 0x1a15111d, 0x05030c06, 0x1412151d,
    0x09021127, 0x0af7e9c8, 0x1d151b0f, 0xf1f90d2a, 0x0909db29, 0x1a241d12, 0xf1071f1f, 0xf4dcd9e2,
    0xf028edda, 0xff03f9e9, 0x100a0d19, 0x0d0c0003, 0x1bef39da, 0x21221c20, 0x0d0b011d, 0x0310140a,
    0xd308cc28, 0xe8f7e4b8, 0x01f2f7fc, 0x050b0f04, 0xfefa0cdb, 0x0201100a, 0x08110709, 0x0e110d09,
    0x370ddfd4, 0x2b313731, 0x180c0218, 0x2a170eff, 0x091c2324, 0xe60ce2ff, 0xebd7b3bc, 0x1d0f08f5,
    0xf7f3f2ed, 0xfc0506fb, 0xddf601f0, 0xd0e3dae0, 0x09fe151d, 0xe4fafb00, 0xf6dd92a7, 0x01e11bfc,
    0x03fc03f9, 0x0b0e0616, 0xe8e2e904, 0xfaed2d12, 0xf004fd09, 0x18fd0509, 0xe5ea0b19, 0xf9f52c15,
    0x01080609, 0xecdce9e5, 0xfc0600f6, 0x16f1dff1, 0xf7f3ebd7, 0xeae8f9fc, 0xd60d1bf0, 0xf808ddf6,
    0x00ece9e5, 0x0e130a02, 0x25090f07, 0xe4f6e4e4, 0x0b1cfa0b, 0xec0ef70d, 0x0508ece7, 0x1b222617,
    0x0f0606f4, 0x3d1d211e, 0x2a182444, 0x0313f606, 0xf4ecf9fe, 0xfaef03fe, 0x05190ff8, 0xfffbdcfa,
    0x05180615, 0x0c140e05, 0x253c6d3b, 0xde1cf8f8, 0x0a04fbff, 0x1f0df6fe, 0x35251009, 0x0ae73211,
    0x02fb0418, 0x1610260f, 0x30073443, 0xc4efd5ef, 0x14140918, 0x16200a11, 0x191612fe, 0x03ffee10,
    0x000ed6e0, 0x060b0908, 0xd8e7fc02, 0x3efbc0c0, 0x05f8041a, 0xe1f3fd00, 0x291a00ed, 0x0412232f,
    0xfcf2e0ec, 0x0503eef5, 0x07040a04, 0xebfceefc, 0x01fafb02, 0xea0401fe, 0x1815fef7, 0xfaf9f7ff,
    0xff050701, 0x11070a06, 0x13180612, 0x0a0c1108, 0x00f7ef05, 0x15090301, 0xf21c2b22, 0xf2ffebee,
    0xf0fe13ef, 0x0202f8ef, 0x0c11200f, 0x12190a02, 0xeddff1f3, 0xf7edf0ef, 0xf8f300fb, 0xfafee5e7,
    0x03faf414, 0x10fcf804, 0xf504090e, 0xf1d9d5e0, 0x10150f1e, 0x01fd0a10, 0x0b1f1d15, 0x2116090e,
    0xf8eed9d0, 0x21081305, 0xd8f90215, 0x0bfffee6, 0x091012fd, 0xedf4070c, 0xecd8cfda, 0x0cfefd08,
    0x08130fed, 0xfe040c0f, 0xfef8edf6, 0xfe0207fe, 0x0d1c2604, 0x1c191114, 0x05121f26, 0xff010af4,
    0xffffd3c2, 0x1008ff01, 0xf0061b0e, 0xfaefeeeb, 0xf9020dfc, 0xfaf901ff, 0x0701fe06, 0x181e170e,
    0x4633334c, 0xf1000212, 0x370c0eff, 0x040bdef1, 0x01f5e9fb, 0x13f3dcd8, 0x0af71bf9, 0xedfcebfc,
    0xfa0004ee, 0x03efd9ec, 0xbcc802e7, 0xedcacad9, 0xe4eceff4, 0x28e6b9c3, 0xfceb1efd, 0x020e03dd,
    0xfc06020a, 0x1ff50515, 0xf1081515, 0xfd090af2, 0x110102f5, 0x21f20f20, 0xf1142517, 0x0cfb020a,
    0xecd4e1fa, 0xfee1e5ea, 0x04f7e9eb, 0x010c15fd, 0xe6f70002, 0xd5fbeedf, 0xfaebf8f3, 0xf4e5eae5,
    0x18201705, 0xe91415ff, 0xf3d4fae7, 0xfbf7e909, 0xff0c0d19, 0x21fde8e3, 0x172f1014, 0x0701fe18,
    0x311d3019, 0xe920364d, 0xed1dff04, 0x07f2f3fa, 0x01f40b12, 0xe4eeeffb, 0xf3f3e6fb, 0x08080e08,
    0x101b1305, 0x2444441f, 0xedecebfb, 0x12080209, 0x160400f9, 0x3b5e2f00, 0xf5ed1f11, 0x122d1c05,
    0x1a0b150f, 0xe6fe244b, 0xabdce6ef, 0x0cffe4d7, 0x09220a14, 0xef112aec, 0x14fed905, 0xf70d0ee6,
    0x05000904, 0xd0f5f6ff, 0x2afbdbc0, 0x463d2d3d, 0xdcd8dee3, 0x1d08f5d3, 0xf8052327, 0x0304f6f1,
    0x1104f2fd, 0x2313fa07, 0xf2f5fb0a, 0xee0a01e2, 0xecf0f4f9, 0xe8f8e8d5, 0xfefbf9f4, 0xf1e9f9fc,
    0x0f0b0600, 0x2a2c200f, 0x130c0f25, 0x070b181c, 0x1f141911, 0xf00d342d, 0xeff1e6e2, 0xef0a04fc,
    0x130102f8, 0xee060a17, 0x141e0cf8, 0xe8e7f4fc, 0xf4f2e8f2, 0xf6ebfd03, 0xf7f4feef, 0xd5e1f0f1,
    0x0a0ff501, 0xf8122015, 0xf7e4dcdc, 0x21060806, 0x050106fa, 0x06272e12, 0x2e230d0c, 0x00261225,
    0x15171606, 0xfe0e0b13, 0x06f9f2e5, 0x1d293012, 0xf80a1413, 0xf3d6cce2, 0x0f0009ff, 0xfef80109,
    0xe9010c12, 0xece0d3e7, 0xfffdebf1, 0x060c060b, 0x3a3f2415, 0x031b2939, 0x0f02eff9, 0x09ff05fd,
    0x1f161618, 0xe410242e, 0xede7ddd5, 0x340f0a01, 0xf0e1e2f2, 0xe9f3ebf9, 0x040f0904, 0x080a070f,
    0xecc60624, 0x1628f3ff, 0x0b0bf0f0, 0xfe040615, 0x3700ebce, 0x11fa16f1, 0xe0e6cadf, 0xe2d5dada,
    0x31fcd9dc, 0xc405fae7, 0xf7cccad1, 0x1b230c12, 0x0feec9c8, 0xede117fb, 0xfb0406e5, 0xe9e8edf7,
    0xe6053711, 0xf7200909, 0xfff80708, 0x1afffc06, 0x1a2f14fc, 0xed342912, 0x1311fe01, 0x1b200f0e,
    0x22e6cde2, 0xf7ec0ff9, 0x161811f3, 0x15121412, 0xdcc809ef, 0xe5f3d7fe, 0xf3f2f2db, 0xfdfdfaf3,
    0xd91e0315, 0x08e9dfd1, 0xf4f6041e, 0x0cfdfcf8, 0x3af0d5c6, 0x30250f0c, 0x09fef406, 0x28201009,
    0xe2210934, 0xe5da1f0a, 0x0f03fdfe, 0x060703f9, 0xe9dacb26, 0xf7fb15fa, 0x0c0b0cf5, 0x03122319,
    0x081c3b22, 0xfbeed902, 0x18130f13, 0x01111e23, 0x364f0300, 0x0712f80c, 0x2b233422, 0x3a313324,
    0xdf02054b, 0xb0cbfcee, 0x252703d2, 0x1e171b27, 0xe8183302, 0x0feceafc, 0xdceff3f5, 0xfaded9de,
    0xd7e2f2f4, 0x15f6e4d4, 0x302f1f24, 0xe0dc112f, 0x0d07f3db, 0xfbf1fefb, 0x01fd04fd, 0x04d722fe,
    0x2f251621, 0xfd101422, 0xcdf7fdf3, 0x05fab5bf, 0xe2e6e1c9, 0x0b05f3f3, 0x1618211a, 0x11b7dff4,
    0x242e2710, 0x0a0c030f, 0x141a1c14, 0xfbe81a05, 0xdcdf1122, 0xed06f7e9, 0xec02fff0, 0x111bf3eb,
    0xeaf60119, 0x1e0b01ff, 0xf1f50911, 0xe7d6dcf0, 0xf9f8f911, 0xfefaf400, 0xd8d2e0ee, 0xeeb0ced2,
    0x0425271b, 0xfcf8edf1, 0x1500f9fe, 0x0a552412, 0x1a2e3230, 0x1f26260e, 0xfa1d0d27, 0x22f8bed2,
    0xf91a0f07, 0x01f3e4e0, 0x181311f7, 0xe7421637, 0xf3e4c3f1, 0x0afbf201, 0x0dff01ec, 0xecd1e823,
    0x08f4e5f5, 0xedf50708, 0x000ffb08, 0xf445210e, 0x031d1827, 0x021304ff, 0x0808f1f9, 0x283e0d0a,
    0xe71a3b27, 0xeeeaeae4, 0x3c130fff, 0xfa2f1b57, 0xe7eae8f1, 0x110608f3, 0xeeecf0fc, 0xe43021eb,
    0x051ffc00, 0xfe0ff900, 0xf504f8f4, 0xd0dfe8f2, 0xe5dcf6f3, 0xeae7cdd0, 0xe9eff5ec, 0x03140003,
    0xd3fa0100, 0xfdd1adce, 0x22191314, 0x312f3028, 0xf418f1fc, 0xee01fc01, 0xe2ebfefc, 0xfc05e5cf,
    0x091e1d07, 0x11fa050e, 0x08fffa0d, 0x1219fafe, 0xfe34310e, 0x181e0304, 0x1c1e1014, 0xe0ddef08,
    0x04f70efc, 0x17141202, 0x10031616, 0xf1e50305, 0xd8eef401, 0xfdf7edd9, 0x140f060d, 0x03131d28,
    0x00c5d8ea, 0xf8f90c00, 0x08110afa, 0x17302614, 0x15221b05, 0x0b0802fa, 0x1e1b100b, 0x221a191b,
    0x0dd80d04, 0x0afeedf5, 0xfdfffb00, 0xf2011919, 0x070611f9, 0x0c030af1, 0x1a0c0912, 0xefe5e805,
    0xfef6fffe, 0x2a150f18, 0x151d1529, 0x1900f6f9, 0x0c142409, 0x270d2619, 0xf4fb111f, 0x0e04e9e8,
    0xbfccdef8, 0x1d3c0fe1, 0x11101302, 0xf4143814, 0xf1d2e3ec, 0xd1cedae8, 0x0107f2e1, 0xeefd0b08,
    0x17fefae0, 0x322d2317, 0x03d8fe2e, 0x071c1e02, 0xf7ebeef6, 0xf6fd0201, 0xfce91931, 0x08e5ff11,
    0x00161c2a, 0xdce20b0d, 0xe9bdbfd6, 0xd4d2ff0e, 0x0a0b05fa, 0x25180f09, 0x34fcfc1f, 0x0715fa0a,
    0xfd00fa05, 0xfb08f5fd, 0x2c2412f0, 0x0b17ffed, 0xed00fcf3, 0xf907e8f7, 0x0317e9f2, 0xfe241202,
    0x18050600, 0x22162512, 0xd6c5fb3e, 0xebf50fed, 0xf5f8f3fc, 0xebeff1ef, 0xe6cee1fd, 0xe3f00214,
    0xf4f60104, 0x08fcfef9, 0xfb1ffbe1, 0x12cfe016, 0x0f282626, 0x1a130609, 0x11d3d40a, 0x071d0ae9,
    0x00f5f4e9, 0xf70f0f06, 0xd84d1e2b, 0xf20d1c0b, 0xfff2f80b, 0x11171802, 0xdbd31245, 0xf60b14f8,
    0x07fc0409, 0x1609120f, 0xfd3411e9, 0xfbe8f1f1, 0xf9020b0d, 0x0b0400fe, 0x334516ff, 0xfe1c0e06,
    0x01f7fae7, 0x451a180c, 0xd7d9ed33, 0xd1c6fa00, 0x231502f3, 0xcbe0ea10, 0xe318ecbe, 0x0bcde8f8,
    0xf712f702, 0xf8f4fc01, 0xd7e9ebf6, 0x100ef6e4, 0xf6ffe3d3, 0xfaeb04fd, 0x05191510, 0xf5f6f9f2,
    0x09d1aad9, 0xfd0a170e, 0x37312716, 0x0a0f2629, 0xe9f0eaeb, 0xe2f8f5fb, 0xfe130de9, 0x080204f9,
    0x07100f03, 0x0809f8fe, 0xfa0efffa, 0xf9f9f504, 0x1b201808, 0x02120c08, 0xdedbd1e9, 0xeff2f7ee,
    0x0e0efe0a, 0x090e0913, 0x0df902fc, 0x0907ff05, 0x070ef4e3, 0x15140e0f, 0x1107101e, 0xfc070f0b,
    0xeef80de0, 0xf4f002fe, 0x1a2d3218, 0x02f7fb0b, 0x01110804, 0x08180f01, 0x2111f8f0, 0xff1b1928,
    0x0805f7ef, 0x0f0b10fa, 0xfdff0516, 0x03f7eee5, 0xfc070cec, 0x16120902, 0x04e9f90d, 0x120cfe03,
    0x31121922, 0x23201e2e, 0x140f110d, 0x06010207, 0xedf1f7fa, 0xd1d2eced, 0x110be1c2, 0xedfb0512,
    0x20160efe, 0xfc0a0c0c, 0x060b2617, 0x15fef6f5, 0xedcccecc, 0x1002fbf4, 0xea132c20, 0x171808f0,
    0x2017281c, 0x02f20d0c, 0xfef60102, 0x0c0d0504, 0x04fd08fc, 0xdcee0625, 0x140e0cec, 0x030a09ec,
    0xc7d4fd11, 0xfcccc5be, 0xfb0b00ef, 0xf5c1ccf7, 0x230d04fe, 0x250af930, 0xf2fcdde9, 0x00f3e4cd,
    0xfef9fff4, 0x0f0d031c, 0x102cf705, 0xf90d1500, 0x050e09f4, 0xf0fae015, 0xf836041e, 0x261c2409,
    0x23220d08, 0x2c373a2a, 0xf2d8e7e2, 0x1c0c0009, 0x17fa03fd, 0x01effb0b, 0x21fb00f3, 0x0d080a16,
    0x02fdfc06, 0x12dee0ec, 0x24ee0c18, 0xe00af5da, 0x12050302, 0xd6c2ea0a, 0x042a24df, 0xf0f60d04,
    0x04120804, 0x0936231f, 0xc708e319, 0x080201e7, 0x28221d07, 0x1119292e, 0xf4f50208, 0x0d1017e8,
    0xf0fe0b22, 0xea0800df, 0x15d820ec, 0x201b0e2f, 0xfc050208, 0x26531df8, 0xf034fbe3, 0xa8c7c2cd,
    0x26220c0c, 0xe5bbd2f9, 0xcbca0421, 0x090a0bfe, 0xd8ecf007, 0x08fbddd9, 0x0bcceb1d, 0x01f5cff0,
    0x07050508, 0xf6f5fa02, 0x1a0405f4, 0xec101c25, 0x00f80005, 0x0417231e, 0xf2f3efef, 0x09f60bf5,
    0xf0f00705, 0x24302912, 0x08051820, 0xd1dcdfea, 0xfafdf7fd, 0x00101a01, 0xf903f1fa, 0x190cfefc,
    0x011709f8, 0x08f8f6f9, 0x0a11010a, 0x25190712, 0xe2fc0817, 0xf2e1dbd8, 0xeeede8e9, 0x261e0b0e,
    0x1405f909, 0x03021009, 0x07050501, 0xfe06fdf6, 0x100f1a17, 0x1110fe09, 0x0c0c1922, 0x0f150000,
    0xf5f4f9f1, 0x1e372203, 0xf1eeec14, 0xf3f3f5f6, 0xfd0206fc, 0x1a0c04fe, 0x1315200c, 0x1f0b0aff,
    0x19180bfc, 0xf80e0e12, 0xfbeff8ef, 0x06fff2f7, 0x1b020203, 0x04050c12, 0x12120b00, 0x10231002,
    0x101f2324, 0x12101715, 0x04011c12, 0xebf4f905, 0xc5bdb3b8, 0x0810f3cd, 0xf8f80b0a, 0xfa0600f6,
    0x0b010505, 0x03021915, 0xebf2fafb, 0xfc0c1402, 0xfe04f9f2, 0xf00c1d12, 0xfc1309f4, 0xece4f2ff,
    0x031013f1, 0xfed8f000, 0x11101af8, 0xf2fbfb00, 0x0d1fec1c, 0xfd330ce9, 0x08112300, 0x12000505,
    0xf9bcd9c4, 0x0a2104f4, 0xd6d0e722, 0xf8e6f0e6, 0x21450116, 0xd8e4ede4, 0x05fef5d4, 0x0d04fb01,
    0x1c35fc0a, 0xf1e1f70d, 0x021b1e07, 0x0301f5f3, 0xf9d7d128, 0xf632fb23, 0x1e111810, 0xe5f5fa06,
    0x22574cfe, 0x0fd3ebe6, 0x10fffcfe, 0x0d141015, 0xfbe30d05, 0x2a48f9ef, 0x07090210, 0x0f141a16,
    0xf903edf7, 0x00281714, 0xe80ff7d5, 0xfcebf4ed, 0xdea7e806, 0xf60717e7, 0xfdeaf2f8, 0xf6f3e7f3,
    0x10201835, 0xe61cf016, 0x04efe7e6, 0x080f1b07, 0xf5ec2217, 0x160ef400, 0x131203f0, 0x03fbf903,
    0xeac7e7de, 0x1cd60feb, 0x0d10fe0c, 0x1d241c1c, 0x245614f7, 0xe813e6ea, 0x9bb5a5b7, 0xd6cac4bb,
    0xdeb5ddfd, 0xceda131c, 0x0af70aff, 0x07060404, 0x122ef5ef, 0x18e1fa16, 0xec03f61b, 0xf6f6ebe2,
    0xeeeefdf8, 0x1efff6fa, 0xf9160106, 0x0824e1ee, 0x041d1e18, 0xe5e5e6ff, 0x13fffcf5, 0x2f14e926,
    0x132f250f, 0xee061520, 0xf10003d7, 0xf4c8c4ca, 0xfc06150c, 0xe4f2f2f3, 0xf7f8faed, 0x2dfb0b16,
    0x15fafafb, 0x0d18190f, 0x0e0b1913, 0x36f3040e, 0xecdce1e7, 0xfb02f0e4, 0x170b0d13, 0xf3d8de16,
    0x0c060504, 0x03fd060a, 0xebffedeb, 0x2d5747f2, 0x1514090e, 0x0c0b1e25, 0x181e0eff, 0x1c1b0fed,
    0x19473b1c, 0xf7f7ef0c, 0xedeff7f3, 0xf2c60604, 0x150bfdf5, 0x0a0c2103, 0x29280c0e, 0xd4e1bfe8,
    0xec110b0c, 0xf1fbf4e9, 0xf5efede3, 0xf710211f, 0x07111815, 0x0c0a0a11, 0x06110afc, 0x0c1441fe,
    0x170c111b, 0xf9ff110b, 0xfa06f0f0, 0xde09becd, 0x111108e7, 0xfcfc0504, 0xf0f9f3f8, 0x261ff7f5,
    0xf1f70416, 0xfbf9f0f7, 0x08030b03, 0xd4c2eef6, 0xfcf4090b, 0x0206fffa, 0x0becf2f9, 0x24351f37,
    0xfdfbef03, 0x0e10180c, 0xf1f9fefc, 0xf0eefdf1, 0x053b1a01, 0x15010f06, 0x0e161c01, 0xfe0d1a10,
    0xfa030d11, 0xdbe2f80d, 0xfee7e9e2, 0x15231a0c, 0xdffee802, 0x01fafce7, 0x221b0900, 0xe7000f0e,
    0xd8e2e60d, 0x0d141b0c, 0xf4f3fa01, 0x1000f9f4, 0xf505f713, 0x02f008fe, 0xe5eee9fc, 0xfde1cdd9,
    0xfde1e40d, 0x1c0bf5f1, 0x161d2127, 0x0b06ff10, 0x1a3efbf4, 0x1b140bf2, 0x120c140d, 0x121a0504,
    0x082a22ed, 0xe7f7f8e4, 0x0d02f9e9, 0x03303611, 0xe10f1d10, 0x07eeee00, 0xebf00205, 0x070602f4,
    0xf0d4ecf6, 0xf8fde9e1, 0x07070c0a, 0xf8080b12, 0x17fceef7, 0x04190ce6, 0x05f0eaf3, 0x22130e18,
    0xf6e8100f, 0x0102f0e5, 0x0b110a0a, 0x14021b27, 0xee01dd11, 0xcfb6abc0, 0xeaefe6d3, 0x150c0afb,
    0xdde71af1, 0xe8000bf3, 0x1a0dfa00, 0xebeee500, 0x4b0313ef, 0xea000c2e, 0xebece4da, 0xf0e7020f,
    0x18111506, 0xfd0f0102, 0x0616c7e7, 0x0118f3fe, 0xe7eced00, 0x0beef2f2, 0x290de21c, 0x081a2701,
    0xd4ec051f, 0xece7efe1, 0xdfccb0d3, 0x00d51801, 0xe0e5eaf5, 0xecf6f4db, 0x261019fd, 0xf0e2dc03,
    0x14111419, 0xfb090f0d, 0x231b0afe, 0xe8e6e9ff, 0x0e05f4e8, 0xfe050b16, 0xf4b5cefe, 0x0a03fa03,
    0xfe091519, 0xf0fe03fa, 0x246c53e4, 0xe008da00, 0x141c1318, 0x231c2313, 0xfa04180c, 0xfd24f700,
    0xfafbeafb, 0x03f5faf0, 0xe1f6161f, 0x10f42b01, 0x0c110a00, 0x0e0a0312, 0xd1c6a5fa, 0xf6052901,
    0xede9faf3, 0xf6ebfde9, 0x0f0a16dd, 0xe0cde2fe, 0x08051122, 0xfff90e02, 0xff196202, 0xf81ce702,
    0xe303150a, 0xf401eae9, 0xd3dfbdd8, 0xecf820fe, 0x00f7fa0f, 0x04fb03fa, 0x2b3701ef, 0xdafee900,
    0xf6f3f4f5, 0x0f03f0ff, 0xe0abf0f7, 0xe6dd0900, 0x0b0618fe, 0x23281a0c, 0x2d352a2e, 0x46000502,
    0x0f02111f, 0xf6f5f9fe, 0x01f9f0f7, 0x0cfe0404, 0x0cfaf90f, 0x03180d04, 0xfafe070e, 0xf4e8f701,
    0xccb0e3f5, 0xf8fcefed, 0x0c150e07, 0xd6dde308, 0xebeef2ef, 0x1e1f0c09, 0xf5ff111b, 0xefeeedee,
    0x071b0ffa, 0xf9fbfe03, 0x1e1203fb, 0x04161112, 0xe5ebfafb, 0xf2f7e9ea, 0xfde5cbd6, 0x091a0cf0,
    0x0bf9f2e9, 0x1a29291a, 0x0b050915, 0x01070b0e, 0x150f1408, 0x01090d11, 0x14270bfb, 0x16220c11,
    0xf9f1f6f8, 0x02f7f000, 0xf91019fd, 0x0cfcf5f8, 0xfbdcf3fe, 0xf7ee0002, 0x00080a01, 0x0c070d08,
    0x041306f5, 0x180c1105, 0xf50d0e16, 0xf4fbf5fa, 0xf0000c01, 0x0ff0e5e9, 0x13130f0e, 0xfb090e17,
    0x05fde7d1, 0x02f7fcf1, 0x15030d0b, 0xe9020c0a, 0xf7d4becb, 0x040404fe, 0x080b0505, 0xf1f0eefa,
    0x030705f0, 0x181f150c, 0xf9e8d7e8, 0xfffb0a09, 0xfa1a1434, 0xdad9e2ec, 0xf6d9eff0, 0x0c060e07,
    0xf1f7f7ff, 0x1615bdf1, 0xfc100c03, 0x05f804fd, 0x07f7eded, 0x4012ed0c, 0x09152c17, 0x01faf6fc,
    0xddfaf2ea, 0xddf4c8c8, 0x12d303db, 0xd2aacdea, 0xe6f2f1ef, 0x351f3efe, 0xf8bfe51f, 0xf7eae0f6,
    0x0200fd0c, 0x2b313a0a, 0xecfff027, 0x050b11f2, 0xf7fe0014, 0xfec2f1e3, 0xfc18e124, 0xece8ec01,
    0xe9080806, 0x07233cf8, 0xe8e9e2db, 0x0efcf3fa, 0x181c2915, 0xd9e0fbf0, 0x3103fcd9, 0x0d050f11,
    0x06ef01f9, 0xe3ebed02, 0x22fe2a04, 0xfafe0208, 0x0c0a070c, 0xf1eec3fb, 0xfb2d2b1f, 0xe4e5f1f2,
    0xfaf6eefc, 0x18f4fb14, 0xeabddbf2, 0x090e0f02, 0xf4f7fafd, 0x01f33e0f, 0x0bfcf1da, 0xefeb030f,
    0xe8eff3f3, 0xd7efc3e0, 0xef121902, 0xedfcdcc8, 0xef0006f7, 0x30432303, 0xdc0e0917, 0x0402ddd9,
    0x1405fb04, 0x04b0cbfc, 0xdfdce2dc, 0x1b1ffce8, 0x1013180d, 0x35200903, 0x2fef1020, 0x052a3332,
    0xf8020204, 0xfe04f9f7, 0x05070cfc, 0x07f5f2f2, 0xfb06090e, 0x04f2f9f4, 0xfeffff04, 0x2217f9fa,
    0xfeecfbe8, 0xed0a0d04, 0xd8e3d8e0, 0xcecee5e1, 0x0e2711fd, 0xf7fb0214, 0x00020efc, 0xfc00fafb,
    0xfd0cff05, 0x10190af4, 0x090a1206, 0xfd02f301, 0xe1e9eaf0, 0x07fcc0bb, 0x0e0c1108, 0xee040e13,
    0x0a161c10, 0xfe02fe10, 0x070c0705, 0xf9fc070e, 0xf5f30a10, 0x1d271007, 0x101c141c, 0x1d072715,
    0xf2f6f5f8, 0x05021204, 0x04050802, 0x07fbfa03, 0x07fdfffb, 0x07fd02fb, 0x0806fe02, 0xe3fc0b0e,
    0x0f0f1b10, 0xe8f7131d, 0xf9f1e9eb, 0x0df5ed00, 0x07f5e1e0, 0x0c182932, 0xf400ff0c, 0x0ae6ebec,
    0xfbefe8e2, 0x0cfff4eb, 0xf6f9080e, 0xd8e2f0fa, 0x06080005, 0x03110df9, 0xeeeef5ed, 0xe2fdf6f8,
    0x08242818, 0x0bfadee5, 0xfd02100d, 0x0e00f6fc, 0xf1f0e7f8, 0x00eeecec, 0x14fb070c, 0x1318110b,
    0x0ee4c804, 0xf5090e00, 0x110802ff, 0x0b02090b, 0x3313120f, 0x00e72514, 0x0901e7ee, 0xfa070704,
    0x1b32fecc, 0xfbd2d91d, 0xf8ccafce, 0xfaeaecea, 0x30153def, 0xe9cbe4f9, 0x02e5cde7, 0x0e160ffe,
    0x273b22f7, 0xf70123f9, 0xfbfbfffa, 0xfd020a05, 0xd6cfe8e7, 0x012828fd, 0xfafff413, 0xf3e4edfb,
    0x25f22202, 0xede5dbe8, 0x12fef3fe, 0x09120505, 0x24d52410, 0x30eed107, 0x0f020314, 0xfffc0301,
    0x0fe4fcfb, 0xfff3d617, 0x00090b01, 0xf7090e02, 0xcb1dbbd5, 0x070834ff, 0xf1f6fffa, 0xf8fdfdfb,
    0x01e6f937, 0xf1dc2d0f, 0x0a04f8fa, 0x090b1414, 0xfbdf201a, 0xf6f8ebec, 0xede6f1f6, 0x2c01e1d5,
    0xe418c7da, 0xf31ad1ed, 0xdde2eae1, 0xdfdfe0e4, 0x150504f9, 0xce1726f6, 0x0804e7e2, 0xf4110211,
    0xd2bfc1f0, 0xeffedbf1, 0x1b1207ec, 0x0520161b, 0x21f41019, 0x13f7fae7, 0x0216392c, 0xf8fefc05,
    0x02f7f603, 0xfff90705, 0x17fefbdb, 0x03f7f000, 0x0bf909f3, 0x0f071816, 0x241e120b, 0x20312e0b,
    0xe6020800, 0xe8e1dee5, 0xbabbd3e2, 0x201b08ab, 0xfdfd0c1a, 0x0f080f0f, 0xf6060111, 0x273a21ed,
    0x050d0c02, 0xffe9f4f7, 0x0402f2f8, 0x1f0a1d04, 0x251befeb, 0xff061318, 0xeef6020a, 0xdfccfe0b,
    0x00f9f5fb, 0x0808060c, 0xf6050807, 0x1621fcea, 0x2521ffe2, 0x011c132a, 0x10fd0fff, 0x16142305,
    0x19080afb, 0x121c1518, 0x190f0d14, 0xedea13fb, 0xfb03f6ff, 0x04ff04f7, 0xdce4f6fe, 0xdcd6c2e6,
    0xf0f60a15, 0xf8f0f4eb, 0x080afc06, 0x0f251425, 0x14202327, 0xdf0103fd, 0x05fcf5f1, 0xf209f2f5,
    0xf9eae6e1, 0x03faff00, 0xede0f8f7, 0xdfebe6f5, 0x0d120ff5, 0xf6f80909, 0xf5ebe4f4, 0x0c090cf0,
    0x07feedf3, 0x07161312, 0x191f100f, 0xe0bfc50c, 0xfef90604, 0x0a0905fd, 0x19111609, 0x16190b00,
    0xfb170e02, 0x0c121117, 0x01f5fd06, 0x02f9f603, 0x19f01700, 0x1b0de0fd, 0x0a040e14, 0x0a060c08,
    0xa0ce0003, 0xe9cfc5cb, 0xf3f2e8f6, 0xeffceffa, 0xfff4dc00, 0x06ece7f6, 0x120cfe05, 0x0b0e0b18,
    0xd2e6ddfd, 0xe8f403e5, 0xf9fbf6f3, 0xeffe05fc, 0xfe1302ff, 0xfa020310, 0x1700090d, 0x2722101a,
    0xf213edfd, 0x0df6fb03, 0xfc06f5f8, 0x07fcf6fe, 0x1800e200, 0x10f9e50b, 0xf9f90701, 0x1111f1ec,
    0x13f7e0fd, 0x191bfffd, 0x09111f18, 0x17150500, 0xfde82603, 0xf9efeeec, 0xf1fd0100, 0x051204f8,
    0xe3f51f01, 0xfcfcede5, 0x1218050b, 0xf9f0fe1c, 0xfc1cfffd, 0xf5d3eae5, 0x230cf0e3, 0x171d2131,
    0xfa0fe203, 0xd2e6f3e5, 0xdddce2e1, 0xf9edf1dc, 0xe4010401, 0x0c09f8ed, 0x06110816, 0x0af80804,
    0xfb072001, 0x0e0915fa, 0xfa141a17, 0x150103fd, 0x2e09e001, 0x18293b37, 0x07ff1112, 0xf5f109ff,
    0xfc00fef8, 0x100108fe, 0xe9f31115, 0x06401d00, 0x1c19120c, 0x1c161b20, 0x172c0707, 0x3c1a0f0a,
    0xf9f1f7fa, 0xbcc8e7ee, 0x171ce3ca, 0xc4d10a17, 0x1708060f, 0x05070a12, 0x0a2d191e, 0x1a120b07,
    0xded8e0df, 0x04e9e1d3, 0xfff52522, 0xc0eff901, 0x05081b22, 0x040efcf3, 0x06f2f60a, 0x16d1eafd,
    0x08fcfd02, 0xf4fe0e0a, 0xef02fe01, 0xfc0e04ed, 0x05211b21, 0xfcf20909, 0x0b30da09, 0x1712180b,
    0x192e1d13, 0x25201724, 0x170b1fec, 0x15130f0e, 0xf5f4fbf9, 0xe7e1e9e8, 0xf7efb0e1, 0xebe900f1,
    0x01f2fcf0, 0xf4150d05, 0x0c10eae9, 0x03feef04, 0xe6f9f9fd, 0xf5f4fbf0, 0xeb0eede8, 0xf40c03f2,
    0x08f70805, 0x03fffbfe, 0x00d22001, 0xec2602f4, 0x02030807, 0xfbf2f003, 0xf5f11efe, 0xf4f7f8ff,
    0x06151613, 0x0a1d130b, 0xfec61205, 0xf7d8e4f0, 0xfb01fefb, 0x140e1007, 0xf1fb06f6, 0x15490dee,
    0x010e0e12, 0x01080208, 0xf2f80705, 0x0b03070a, 0x1913f610, 0xfd01f10b, 0x0a040003, 0x14130108,
    0xf2eff6ef, 0xf4fffbfa, 0xefeaebf4, 0xeff2ecea, 0x03f2fe01, 0x071408fd, 0x0b17171b, 0x0e0f0611,
    0xe0ebf7e5, 0xeef5f1e2, 0xe4f0f4fc, 0xc7e1dae5, 0x07070e0e, 0x21140914, 0x2413141e, 0x0313141e,
    0xf3f107f9, 0x07060af5, 0xfffa0202, 0x0bff0604, 0xf4fb07ea, 0xeffbf305, 0xfafaf7ef, 0x0306fdf7,
    0x2116f707, 0x0e10191c, 0x18231b12, 0x23322012, 0xf2efe6ef, 0xfef8eff9, 0x06ff0201, 0xe9ebf1ff,
    0x04080dfc, 0x0d0c0ffd, 0xfcfcff07, 0x00f3faf2, 0xe2ced2d6, 0x0f010bf6, 0x0917221d, 0xf4ff1407,
    0xf4f70210, 0xecdeeaf6, 0xfdecedee, 0xfcf1f902, 0xff08fcf0, 0x03080500, 0x0806fefc, 0x100e0f04,
    0x1a140609, 0x130b1d10, 0x16121517, 0x0303100e, 0x0e09fb0f, 0x06030d06, 0xfbfc0404, 0xfafd0004,
    0xfeff0208, 0x06f2ff23, 0xff21fd00, 0x040afd00, 0x0e120f0f, 0x021e10f5, 0x1f0d0b0a, 0x0b1d2313,
    0xdbb4f3f9, 0xfdfe1de4, 0xe4d61314, 0xf1fd14e9, 0x140d020a, 0xfd140a23, 0x1819ff06, 0x0a00150c,
    0xd7ceddd0, 0xfde5371e, 0xcfd5feff, 0xf0e0dee5, 0x0e111e10, 0x06050118, 0xf5d5f403, 0xfe0113f9,
    0x12060101, 0x03f9ed04, 0x0a11e9ed, 0xfaf9f0ed, 0xfaf5fd00, 0x00dff1ff, 0x25290d0e, 0xf5ff17ff,
    0x0d1f1427, 0xfa0514e8, 0x2401110a, 0x01f7fc2c, 0xd1e7dbdf, 0x0303b9c2, 0xe4f005f4, 0xf1f4efe9,
    0x0b0f171b, 0x032611ea, 0xebe60204, 0x0d1212f9, 0x210ef5e8, 0xfa30f5f6, 0x080cf5f1, 0xedd2d4ea,
    0xf4f80905, 0x00daf40b, 0x13faf6ef, 0x04fdfd21, 0xf7e507fc, 0xfed420f9, 0xdde6fffb, 0x0f08120f,
    0xfe111014, 0x0213f704, 0xf5d5f3f1, 0x0a05f5fa, 0x251602f3, 0x030c09fb, 0x1c41f9f3, 0x0c01e40e,
    0x0c0d0706, 0xf8f40007, 0x02030701, 0x08f8f9fc, 0xfdf5060b, 0x0604fbf2, 0x180a0a02, 0xfa15101c,
    0xeafdf7f8, 0xfa01f8ec, 0xf20702fe, 0xffc2defc, 0x04100c10, 0x0d151615, 0xf605fd0e, 0xfb00030c,
    0xeafd02f8, 0xeff4ed00, 0xd4eee3f0, 0xccc9d2e0, 0x0f090f0a, 0x1a141419, 0x181e2617, 0xfc07070f,
    0x0e170605, 0xf803070f, 0x0101fcfe, 0x050911fe, 0xeafae8e5, 0xeee5f5e9, 0x05f5eae8, 0xd7e0f9fc,
    0x180d0d03, 0x19100910, 0x212a190d, 0x08060f1f, 0x0600f3ef, 0x100a0b08, 0xf4e80108, 0xe7faeded,
    0x0f060703, 0x0103060c, 0x03f3f7fb, 0x0803fe01, 0xfcfafcfc, 0x07fc0c0d, 0xfdfe020c, 0xfe0b12ed,
    0xf9f8ebfa, 0xf2f8e9f9, 0x01f8f7f7, 0x06090d0c, 0x02f8050a, 0xfb0dfbfb, 0xfe0c03f8, 0x04f50002,
    0x1e160a06, 0x12191f1f, 0xff050d0d, 0x0efffe01, 0x1d0e0904, 0xf602040d, 0xfb0103fe, 0x2520f5f0,
    0x0b01fa1b, 0xf416fefd, 0x090ceed8, 0x0c000308, 0x04f807f1, 0x092bffff, 0x18100ef6, 0x160b1907,
    0x01220b22, 0xc8cb0300, 0xf3f7fdd5, 0x010705fe, 0xfdd8fa0c, 0xf3e402fe, 0xfa010bf0, 0x0bfcfffa,
    0xfef82f1a, 0xc6d101ff, 0x0e0a03fa, 0xedf6faf7, 0x030bf9e3, 0xe7ea0103, 0xf001fff9, 0x091c0af4,
    0x00dff810, 0xf7e30203, 0xeedcd8e7, 0x0c010100, 0xfee8e2e4, 0x0429fe03, 0x0e141a00, 0xfff6f7f5,
    0xfd270ee9, 0x3a2bff00, 0xe6fc1130, 0x05ff0201, 0x04f5e1d8, 0xf714fe03, 0x0c02f5f3, 0x0d07fdf1,
    0x033a07f8, 0xd9fbfd01, 0xfb01fe0a, 0x15121105, 0xfc0ef3f7, 0xfcf7fdfe, 0xe4e7ecfb, 0xeee3f0f2,
    0xfe140302, 0x27cefefe, 0x0902021b, 0x0403f108, 0xfcd5200e, 0xc9f00201, 0xfe02040b, 0xfbf40a10,
    0x03250cfc, 0x150d0301, 0xf5f20004, 0x14150519, 0x03c9fc19, 0x422e0000, 0x0e0d0d2b, 0x37332217,
    0xfbecf9fc, 0x0104faf4, 0x0ffff40b, 0x0209ff23, 0x0b041109, 0x08101104, 0xf407000b, 0xfd12fde7,
    0xfefaff12, 0x05071614, 0xf7fddcea, 0xfd161903, 0x0c0c0d15, 0x0e04ff05, 0x18281309, 0xfedef50e,
    0xebeae5f3, 0xd8e3e4e5, 0xe7dec5dc, 0xfe152232, 0x130cf709, 0x0100180e, 0xd1e4fa00, 0x0112e8e2,
    0xf8060811, 0x1d1b110a, 0x18242f14, 0xfdcefe08, 0xf5f6f6fa, 0x02f2e4e9, 0xd1e0ffff, 0x0008e3e4,
    0x1403080a, 0x22200f15, 0x1a1f1027, 0xff3c0b01, 0x10151605, 0xef060d01, 0xcdd2e5ec, 0xffdad1d7,
    0x0409101e, 0xf5e1fb0d, 0x03f8efee, 0x022f17eb, 0x120f00f7, 0x0e170c15, 0x07111d12, 0x030013f0,
    0xfa05fbf5, 0xf8faf4fe, 0x12021c10, 0xfd070402, 0x00fbff03, 0x0d0b0106, 0x230c0d0a, 0x03f61321,
    0x07191c1f, 0x06080d14, 0x15fffc06, 0x02060909, 0xfaff0711, 0xf800fcf6, 0x2d230c02, 0x01e3173a,
    0x1c010203, 0xfef3cfed, 0x12091007, 0x01f4f718, 0x23190101, 0xfc06f205, 0x090501f7, 0x030a070a,
    0xc5deff00, 0x05f411e2, 0xf7faf803, 0xf5ebe2e5, 0xc1ed0001, 0xf3ee06e3, 0xedfef4fa, 0x0c06fe06,
    0xf2f70203, 0x09152d0d, 0xe3f1f303, 0xf2ece5dc, 0x16fdfffd, 0x04f506fd, 0xff141c0e, 0x0f030403,
    0xc0ee00fe, 0xe9dbf8e7, 0x02faf2fd, 0x05fef604, 0xf715ff00, 0x102109e3, 0x0b0a0f00, 0xeaf7eff4,
    0x231303fd, 0xf5f7d4ff, 0x06fe0afa, 0x0c0a0406, 0x101b01fd, 0x15222738, 0x1618f700, 0x080810ff,
    0xbee0feff, 0xeae5f0c9, 0x14031904, 0x0e1a1c1b, 0xe307ff00, 0xc4c5d2df, 0xf1d4ddcf, 0x0f12fcf3,
    0x34f601fd, 0x1e201722, 0x2519f90c, 0xfdfd0802, 0xc6f803fe, 0xf1f1ebe5, 0x1300f8fb, 0x03fc0009,
    0x12feff00, 0xfceaeaf7, 0x1417120c, 0x0d000f18, 0x3211fefe, 0x1c12f42b, 0x1e18231b, 0x13261f1f,
    0xeaf1f4f5, 0x28f0e9f2, 0x03fe211b, 0xe412fe02, 0xf7f6140b, 0xe6e900f8, 0xfe27240a, 0xf90dffff,
    0x0c0bf6eb, 0x3c2602fe, 0xfd19251c, 0x0a000303, 0xff090afc, 0x0d0d1801, 0x03252829, 0x040a0003,
    0xeef003e1, 0x0df0fafb, 0xfe2f0546, 0x27ec02fe, 0xff1b2906, 0xd8fafdf9, 0xfe01db06, 0x22dcfe03,
    0x19170412, 0x140d1a16, 0xfff12efb, 0xee07fffd, 0xfef9eee4, 0xef071402, 0xfd3540e6, 0x0003fffe,
    0x1b1d1411, 0x001b1316, 0xff18e30d, 0xdb16fd03, 0xe3e10316, 0xece0dded, 0x02e1d0cd, 0xe9e70001,
    0x0cfdf909, 0xed00e8ef, 0xfd09f2fc, 0x25e201fd, 0x1510031e, 0xf2090d05, 0xfe061d06, 0xfae2fd03,
    0x18fc030d, 0x341f192b, 0x01e0cde9, 0x26100101, 0x240cf0f3, 0x04ef1013, 0x0212f724, 0xf2e2fffd,
    0x060dfe12, 0x21fbe406, 0xfddad2f8, 0x171f0101, 0x00171a17, 0x051e2208, 0x02f8f93c, 0xd613fefd,
    0x08180d03, 0x0b0f0706, 0x0c12f606, 0x1ef4ecfe, 0xeef9edf2, 0xdeeaf8fe, 0xe0dbdee2, 0xe4d8e2e5,
    0xf7e40814, 0xeeedeffa, 0xe9f5e6e2, 0xdefff7e8, 0xebdde8f1, 0xfaea0411, 0xfc07f908, 0xf9f6f8fd,
    0x0705182a, 0x08f5fe05, 0x02fef70e, 0x03f80107, 0xfce4e312, 0x01f41816, 0x01eefe0b, 0x1d0e0808,
    0xd7dbf6ec, 0xdce1c4ce, 0xfcffe2ce, 0xe0f5f6fb, 0xfbfec5d4, 0xebfcfafb, 0xf2f603f8, 0xdeeee6db,
    0x0d13edd2, 0x0f19211e, 0x190a192c, 0x34252c1d, 0x23132d22, 0x282f2d35, 0x0111161b, 0xfcfdf40d,
    0xdbdfbdf5, 0x09ffebc8, 0x1600fbf2, 0xf3f80d05, 0xdce8d3e7, 0xf1efcece, 0x0fefe7d7, 0xe9010d00,
    0x1f1b472c, 0x39462520, 0x1b24231f, 0x3d3d302f, 0xf1f1e5fe, 0x1901e9f3, 0x2a310f1a, 0x0916241c,
    0x0103f8e3, 0x000e0900, 0xfbf0f6ef, 0x0f010601, 0x192a12f4, 0x12241011, 0x2d1c2a1e, 0x2a202f3b,
    0x1deefc09, 0xfd0101fb, 0xfd02fefd, 0x1c111403, 0xeaafb5dc, 0x0311ed0b, 0xea000202, 0xd9c7c0ca,
    0x431dfdf7, 0x02f5f21d, 0x19fdfe02, 0xff131827, 0xf4002410, 0xfe111ff0, 0x16ff0100, 0x1df2e6ef,
    0x1e100f00, 0x031b0442, 0xfd000000, 0x0ef9ebe5, 0x21301903, 0x03fee22e, 0xfe000303, 0xfef7e4f8,
    0xd4d8f802, 0x02162bc8, 0x12ffff00, 0xf7092028, 0xfd0bfdf9, 0xfd1a00da, 0xeafd0103, 0xaebbcad1,
    0x2628131c, 0x020bef2f, 0xfe0000ff, 0xfff3f7f7, 0xd6d8dadf, 0xfdece5dd, 0xeb0103ff, 0x2bfde8db,
    0x1008f5cb, 0xfd13eb27, 0xe4ff02ff, 0xd7dcd7e8, 0xeff2e4eb, 0x0010f2fd, 0xfefdfefd, 0xd4e1eeff,
    0x1c274349, 0xfeee0deb, 0x13fd0001, 0x1e272b19, 0xd9c5f205, 0xfd0cddfb, 0xec030202, 0x27f4e6e1,
    0x410a031b, 0xfef10e42, 0x17fd01fd, 0x010c1f22, 0x21200f11, 0xfd100338, 0x0afffe02, 0x07fbf7ec,
    0xe7160a1e, 0x0414feed, 0xfa04f8eb, 0xff0a0b13, 0xefebd0dc, 0xdcb4beb4, 0xcdd4dbde, 0xf9d0d8b7,
    0x0f0c1803, 0x1414ed01, 0xe604160c, 0xcacde4e5, 0x1e39462c, 0x13350e20, 0x271f1b17, 0x05202833,
    0x020613ff, 0x251c1502, 0x28160f1b, 0xf22a231d, 0x0f192607, 0x21f40d0d, 0x1f03f70f, 0xe72404f6,
    0xe5ecf3f8, 0xd8f3e2fc, 0xeef9f8ef, 0x22ff0901, 0xccd3c6ce, 0xe0b5c7de, 0xd5cacedc, 0xfcc8bfcc,
    0x13140609, 0x13040f0d, 0x110d0f11, 0x0af10216, 0x141a1922, 0x0b101dfd, 0x00141e0f, 0xe80bf0e4,
    0xd9cfcbd2, 0xdab8d7cf, 0xf2deebe6, 0x06f1e8e2, 0xbdbdcfe1, 0xc1a4c0d3, 0xc3cbc9b8, 0xfacdc5c9,
    0x282a301e, 0x223f2c2f, 0x1c334635, 0x202e4848, 0x14081428, 0x071e1b0f, 0x23220df8, 0xf20a130b,
    0x13080706, 0x0414061a, 0xff01090c, 0x01c5e90e, 0x1415ffff, 0x181a1f15, 0x1f111211, 0x0c081321,
    0xfe03ed14, 0x03fe0200, 0xe5e0d7e2, 0xdcc9d8e3, 0xfffe01f0, 0x030103ff, 0x00010101, 0xdedce8f3,
    0x0303e5ff, 0x01ff0002, 0xffffdde6, 0x10e2fcf7, 0x03ff000f, 0x00fefeff, 0x0001fefd, 0x141f1a01,
    0xfeff080b, 0xff020101, 0x13100b02, 0x1541151e, 0x010013e8, 0x01fe0103, 0x1c1d1803, 0x14331226,
    0xfe03f516, 0x03ffffff, 0x0400ebfa, 0xf9defafd, 0xfeff02ec, 0x020002fd, 0xe1dcf901, 0xd2cbd2d3,
    0xfffef1f5, 0xfffdfffe, 0xfc02f5fe, 0x0bf8f402, 0xfe030cf8, 0x0203fe01, 0xfafd0c07, 0xf21404fd,
    0x010213e6, 0xff00fd02, 0xecf0130a, 0xe8dfe2e7, 0xff0200e9, 0xfd000000, 0xf4f502fc, 0xd4d1e1eb,
    0x03fee91a, 0xfeff00ff, 0x150deafa, 0x13151013, 0xfe010eee, 0x0202fd00, 0x2422160b, 0x07361b2a,
    0x02ffe226, 0x00010300, 0x0806e5f3, 0x11f1f707, 0xff02fa00, 0xfdfe01fd, 0x0906f4ff, 0x0a05000d,
    0xdad3dde3, 0xe1e1dbd4, 0xf5020704, 0x0101ff00, 0xceb5cdd1, 0xd5c6d2d0, 0xffeeeee9, 0x0100ff00,
    0x352a0018, 0xe7111125, 0x00f8f8ed, 0x01feffff, 0x17442528, 0x17282325, 0x07161602, 0xfe00fe03,
    0x1a3b3f0c, 0x16032617, 0x21221f08, 0x01fdfd03, 0x04105301, 0x05093c0b, 0x2b351101, 0x01020002,
    0x01f6df07, 0x0e1d050b, 0xdbf9fe07, 0xfffd01fd, 0xcfb1bbc8, 0xcbc3b9c4, 0xf8dce1e7, 0x000302fe,
    0xe9dee90c, 0xd7dfb4d3, 0xfbe3d0db, 0x00fffefd, 0x061727f0, 0x11fb240c, 0x26252607, 0x02fefd02,
    0xeff10bdb, 0x03d9ecfe, 0x1f1bf1fe, 0x01030303, 0xd3b9ddd3, 0xd1dddae2, 0xf3edede4, 0x01ff0002,
    0x1f1ff322, 0x15260e16, 0xf2121113, 0x01fdfe00, 0x1c374205, 0x1afb2e13, 0x26241f02, 0x01000201,
    0xfaf3d617, 0xf4fcd3f7, 0xd9c5dff1, 0x00030001, 0xfe0fe606, 0xdfe4c8cd, 0x0dffeed6, 0xfd010201,
};

const uint32_t fc1_bias[16] = {
    0xffffbf54, 0xfffff2d1, 0x00002402, 0xfffffcc1, 0x00002f6a, 0x000049a1, 0xffffe2e2, 0x00001e9f,
    0x00002cdf, 0xfffff0e4, 0x000027cb, 0x000007eb, 0x00001d47, 0x00000bc5, 0xfffffda4, 0xfffff7c5,
};

const uint32_t fc2_weight_chunks[64] = {
    0x04f91011, 0xe80e1af7, 0x081a15bf, 0xfb10b7bf, 0x092e31fe, 0x31db3ce9, 0xc70ae915, 0xd6ce18d0,
    0x1fb71123, 0x2a1df714, 0x0304cd00, 0x20d73ddb, 0xe7b11a0c, 0xf8d9f2f4, 0xc3c9221f, 0x22ed050f,
    0x9c36f71f, 0x2f22f2c6, 0x18080cd8, 0xe9f1ec13, 0xecd9d481, 0xf4d22424, 0x0a1ddc15, 0x1d17f614,
    0x1b02c9e4, 0x190bf8fb, 0x38f4e71e, 0xc11f95b3, 0x0fef041d, 0xebf2332e, 0xdafa2ad7, 0xf6b61b14,
    0xdeeaf3f2, 0xcc0bafc1, 0x140f0613, 0xfe1a1606, 0x042db724, 0xda1fd807, 0xcdb20ce6, 0xfb11f527,
    0x00000000, 0x00000000, 0x00000000, 0x00000000, 0x00000000, 0x00000000, 0x00000000, 0x00000000,
    0x00000000, 0x00000000, 0x00000000, 0x00000000, 0x00000000, 0x00000000, 0x00000000, 0x00000000,
    0x00000000, 0x00000000, 0x00000000, 0x00000000, 0x00000000, 0x00000000, 0x00000000, 0x00000000,
};

const uint32_t fc2_bias[10] = {
    0xffffffbf, 0x00000002, 0xffffffde, 0x00000014, 0x00000020, 0x000000f0, 0xffffffc9, 0x0000000d,
    0xffffff6d, 0xfffffffa,
};

const uint8_t test_image[784] = {
    0x00, 0x00, 0x00, 0x00, 0x00, 0x00, 0x00, 0x00, 0x00, 0x00, 0x00, 0x00, 0x00, 0x00, 0x00, 0x00,
    0x00, 0x00, 0x00, 0x00, 0x00, 0x00, 0x00, 0x00, 0x00, 0x00, 0x00, 0x00, 0x00, 0x00, 0x00, 0x00,
    0x00, 0x00, 0x00, 0x00, 0x00, 0x00, 0x00, 0x00, 0x00, 0x00, 0x00, 0x00, 0x00, 0x00, 0x00, 0x00,
    0x00, 0x00, 0x00, 0x00, 0x00, 0x00, 0x00, 0x00, 0x00, 0x00, 0x00, 0x00, 0x00, 0x00, 0x00, 0x00,
    0x00, 0x00, 0x00, 0x00, 0x00, 0x00, 0x00, 0x00, 0x00, 0x00, 0x00, 0x00, 0x00, 0x00, 0x00, 0x00,
    0x00, 0x00, 0x00, 0x00, 0x00, 0x00, 0x00, 0x00, 0x00, 0x00, 0x00, 0x00, 0x00, 0x00, 0x00, 0x00,
    0x00, 0x00, 0x00, 0x00, 0x00, 0x00, 0x00, 0x00, 0x00, 0x00, 0x00, 0x00, 0x00, 0x00, 0x00, 0x00,
    0x00, 0x00, 0x00, 0x00, 0x00, 0x00, 0x00, 0x00, 0x00, 0x00, 0x00, 0x00, 0x00, 0x00, 0x00, 0x00,
    0x00, 0x00, 0x00, 0x00, 0x00, 0x00, 0x00, 0x00, 0x00, 0x00, 0x00, 0x00, 0x00, 0x00, 0x00, 0x00,
    0x00, 0x00, 0x00, 0x00, 0x00, 0x00, 0x00, 0x00, 0x00, 0x00, 0x00, 0x00, 0x00, 0x00, 0x00, 0x00,
    0x00, 0x00, 0x00, 0x00, 0x00, 0x00, 0x00, 0x00, 0x00, 0x00, 0x00, 0x00, 0x00, 0x00, 0x00, 0x00,
    0x00, 0x00, 0x00, 0x00, 0x00, 0x00, 0x00, 0x00, 0x00, 0x00, 0x00, 0x00, 0x00, 0x00, 0x00, 0x00,
    0x00, 0x00, 0x00, 0x00, 0x00, 0x00, 0x00, 0x00, 0x00, 0x00, 0x54, 0xb9, 0x9f, 0x97, 0x3c, 0x24,
    0x00, 0x00, 0x00, 0x00, 0x00, 0x00, 0x00, 0x00, 0x00, 0x00, 0x00, 0x00, 0x00, 0x00, 0x00, 0x00,
    0x00, 0x00, 0x00, 0x00, 0x00, 0x00, 0xde, 0xfe, 0xfe, 0xfe, 0xfe, 0xf1, 0xc6, 0xc6, 0xc6, 0xc6,
    0xc6, 0xc6, 0xc6, 0xc6, 0xaa, 0x34, 0x00, 0x00, 0x00, 0x00, 0x00, 0x00, 0x00, 0x00, 0x00, 0x00,
    0x00, 0x00, 0x43, 0x72, 0x48, 0x72, 0xa3, 0xe3, 0xfe, 0xe1, 0xfe, 0xfe, 0xfe, 0xfa, 0xe5, 0xfe,
    0xfe, 0x8c, 0x00, 0x00, 0x00, 0x00, 0x00, 0x00, 0x00, 0x00, 0x00, 0x00, 0x00, 0x00, 0x00, 0x00,
    0x00, 0x00, 0x00, 0x11, 0x42, 0x0e, 0x43, 0x43, 0x43, 0x3b, 0x15, 0xec, 0xfe, 0x6a, 0x00, 0x00,
    0x00, 0x00, 0x00, 0x00, 0x00, 0x00, 0x00, 0x00, 0x00, 0x00, 0x00, 0x00, 0x00, 0x00, 0x00, 0x00,
    0x00, 0x00, 0x00, 0x00, 0x00, 0x00, 0x53, 0xfd, 0xd1, 0x12, 0x00, 0x00, 0x00, 0x00, 0x00, 0x00,
    0x00, 0x00, 0x00, 0x00, 0x00, 0x00, 0x00, 0x00, 0x00, 0x00, 0x00, 0x00, 0x00, 0x00, 0x00, 0x00,
    0x00, 0x16, 0xe9, 0xff, 0x53, 0x00, 0x00, 0x00, 0x00, 0x00, 0x00, 0x00, 0x00, 0x00, 0x00, 0x00,
    0x00, 0x00, 0x00, 0x00, 0x00, 0x00, 0x00, 0x00, 0x00, 0x00, 0x00, 0x00, 0x00, 0x81, 0xfe, 0xee,
    0x2c, 0x00, 0x00, 0x00, 0x00, 0x00, 0x00, 0x00, 0x00, 0x00, 0x00, 0x00, 0x00, 0x00, 0x00, 0x00,
    0x00, 0x00, 0x00, 0x00, 0x00, 0x00, 0x00, 0x00, 0x3b, 0xf9, 0xfe, 0x3e, 0x00, 0x00, 0x00, 0x00,
    0x00, 0x00, 0x00, 0x00, 0x00, 0x00, 0x00, 0x00, 0x00, 0x00, 0x00, 0x00, 0x00, 0x00, 0x00, 0x00,
    0x00, 0x00, 0x00, 0x00, 0x85, 0xfe, 0xbb, 0x05, 0x00, 0x00, 0x00, 0x00, 0x00, 0x00, 0x00, 0x00,
    0x00, 0x00, 0x00, 0x00, 0x00, 0x00, 0x00, 0x00, 0x00, 0x00, 0x00, 0x00, 0x00, 0x00, 0x00, 0x09,
    0xcd, 0xf8, 0x3a, 0x00, 0x00, 0x00, 0x00, 0x00, 0x00, 0x00, 0x00, 0x00, 0x00, 0x00, 0x00, 0x00,
    0x00, 0x00, 0x00, 0x00, 0x00, 0x00, 0x00, 0x00, 0x00, 0x00, 0x00, 0x7e, 0xfe, 0xb6, 0x00, 0x00,
    0x00, 0x00, 0x00, 0x00, 0x00, 0x00, 0x00, 0x00, 0x00, 0x00, 0x00, 0x00, 0x00, 0x00, 0x00, 0x00,
    0x00, 0x00, 0x00, 0x00, 0x00, 0x00, 0x4b, 0xfb, 0xf0, 0x39, 0x00, 0x00, 0x00, 0x00, 0x00, 0x00,
    0x00, 0x00, 0x00, 0x00, 0x00, 0x00, 0x00, 0x00, 0x00, 0x00, 0x00, 0x00, 0x00, 0x00, 0x00, 0x00,
    0x00, 0x13, 0xdd, 0xfe, 0xa6, 0x00, 0x00, 0x00, 0x00, 0x00, 0x00, 0x00, 0x00, 0x00, 0x00, 0x00,
    0x00, 0x00, 0x00, 0x00, 0x00, 0x00, 0x00, 0x00, 0x00, 0x00, 0x00, 0x00, 0x03, 0xcb, 0xfe, 0xdb,
    0x23, 0x00, 0x00, 0x00, 0x00, 0x00, 0x00, 0x00, 0x00, 0x00, 0x00, 0x00, 0x00, 0x00, 0x00, 0x00,
    0x00, 0x00, 0x00, 0x00, 0x00, 0x00, 0x00, 0x00, 0x26, 0xfe, 0xfe, 0x4d, 0x00, 0x00, 0x00, 0x00,
    0x00, 0x00, 0x00, 0x00, 0x00, 0x00, 0x00, 0x00, 0x00, 0x00, 0x00, 0x00, 0x00, 0x00, 0x00, 0x00,
    0x00, 0x00, 0x00, 0x1f, 0xe0, 0xfe, 0x73, 0x01, 0x00, 0x00, 0x00, 0x00, 0x00, 0x00, 0x00, 0x00,
    0x00, 0x00, 0x00, 0x00, 0x00, 0x00, 0x00, 0x00, 0x00, 0x00, 0x00, 0x00, 0x00, 0x00, 0x00, 0x85,
    0xfe, 0xfe, 0x34, 0x00, 0x00, 0x00, 0x00, 0x00, 0x00, 0x00, 0x00, 0x00, 0x00, 0x00, 0x00, 0x00,
    0x00, 0x00, 0x00, 0x00, 0x00, 0x00, 0x00, 0x00, 0x00, 0x00, 0x3d, 0xf2, 0xfe, 0xfe, 0x34, 0x00,
    0x00, 0x00, 0x00, 0x00, 0x00, 0x00, 0x00, 0x00, 0x00, 0x00, 0x00, 0x00, 0x00, 0x00, 0x00, 0x00,
    0x00, 0x00, 0x00, 0x00, 0x00, 0x00, 0x79, 0xfe, 0xfe, 0xdb, 0x28, 0x00, 0x00, 0x00, 0x00, 0x00,
    0x00, 0x00, 0x00, 0x00, 0x00, 0x00, 0x00, 0x00, 0x00, 0x00, 0x00, 0x00, 0x00, 0x00, 0x00, 0x00,
    0x00, 0x00, 0x79, 0xfe, 0xcf, 0x12, 0x00, 0x00, 0x00, 0x00, 0x00, 0x00, 0x00, 0x00, 0x00, 0x00,
    0x00, 0x00, 0x00, 0x00, 0x00, 0x00, 0x00, 0x00, 0x00, 0x00, 0x00, 0x00, 0x00, 0x00, 0x00, 0x00,
    0x00, 0x00, 0x00, 0x00, 0x00, 0x00, 0x00, 0x00, 0x00, 0x00, 0x00, 0x00, 0x00, 0x00, 0x00, 0x00,
};

const uint32_t fc1_n_chunks = 3136;
const uint32_t fc2_n_chunks = 64;

const uint32_t fc1_mult = 10;
const uint32_t fc1_shift = 16;
const uint32_t fc2_mult = 673;
const uint32_t fc2_shift = 16;

const int32_t hw_zp1 = 0;
const int32_t hw_zp2 = 0;

const uint32_t expected_label = 7;
