84177492698da26d66e844db797b2c2623ac68a1467020cb613027c747e5ff96639479d56702064bd381b8dfe300a330ad987162c51ea208592e56eaa8d6d0eb832c32d77a1f7ac9782cd8d60ebc078cb3c5a7d978f0a50c25501403605deef383eaa2a9ddad4f59ca5b42af3d4dff96674c3689feb0438412f5fefa36f360c9fbf1e818e65dacbcff2516c40f32e36eb34fbe9c50f891146028e38a4fca56a7c60dc56e646c7bf8a976e589112d441df7723ffc879e548a61963ae85329b1d1a359fd3b5baba9beef90557a49267593e9841921e5146623ab4a856775eba631cbf247875a43749cc727d26ed811264b519405620355dadb625ba4721708efe3
a818299d9b4cba6a06d8745c48a01c5981e3a6da0b04d1094d6fe7abf45600123d202c92dd4c93703bb1c089e42687afb992d9f05d2787e328d1dcda29e2193f8bae131bd21474a164cfd09c8bf5eb9757fb1d48ce2594697b5303e59d92c7ccbd7bc8dda9cd4edeb6e2ac17cebf8eb647af41e02b12d7f534d89aa56bbd520c43be533da7037edc9a005712ae874d185567c98a686befdd8ddb239adf6af0e41bf997184372ea7edf9cd6e68d5eebd381091d7da01f8a6851ead94ad534ad077c147459efd3f4405cc401099b17d7552e2729af5ec672f27c7df2c524173930ad53043043f7ae6ba07baf2d800c4119ba994cb24b8812c8b68e77072589c0e9
c7f7101f8bb38ff3213b35d4a04cec98b4a38a877a2c5b9fd0d7389fb73c5819a9929934336d1f13e50f91394b0daa8cc95849bbfe2ed9a675857dabb3d721810754ec356c4a70b27e7baacb6b64d4647692c11fe94c8a06b25e435cd0281832eb12650864215776b20a94027bb78d7257d6091edcd29caef37ae063983158ecd51c7b1d5cb6b0d493e61fb472023e5493383ae03638a6ab90cc67fac31c626451430504b1523cc0aaf63b5dffa0bd30ba1d0ed63ea62620681e0fa7a9d1e8c9ac4cc7c269ee0a61f3cfbff47e7b4cce2ac875241069fcd271db8b756db5024e12fcb6b79eb55d704f372c280d362b531c57733dacf9a9b9e9f816dbdcfca681
afdcc59076716dde16091ccfbdaeb92b8c9d313705b51638386c1ed51c0a5dcf4be35763f2d77962565906d60e6491870150f2603cc2e822a7c806cf7cfe438c92237643c062e4490d12f6863293b6a4044893739c13654b031b26a5094017f5e0c6069e0a2b84a7448fe96490ec32a3777df4579823a0337b1c1a371e34e58e409fb311df891335c54905cfc5523d6510b5458573e1f05ef9b6500ae5eeda66ce5b808288c89c2c2d21f70d0448daf780e3c9e651816de10e4d3e8655cc623209f4506acaa6c7107982946f6ff69161c3e26c3cfa1f9102bff7a76e2d219478b4cc54e4af253e2ac4b43726e8e942135729fa6867c76ae76617989b454f52f9
57b6bfd3a463f92ae2f8473a2bcadf171960a96d9e32e2f688c286c102ba7b36dbb4a6e0e1fdb014c1b38f989f57bff0c09eb9c3e13174dddd32f116acd96ce578382dcf93113d6905ae980daa68c4a03758b46d10cd1357c9d57bfd904b5744aafd7b17a3cc5e142e9c85c00865c15d7815001c0c9b4c07ceb40a847de0a61ceda75d2421584d06fb4d22e8606f7d4c29178abf747592546f15f10fa2c45809e188cc1dfe08c97107d25ac3595acb11415ce769018be6b9c2a601228141a7f10b925de7b22ebff5fae4d1f1c2e5edc583560ecb2d3b605edcbce2eb2ea19973d92ec99b3d9fbcd95b0ce828418f47a8dab044ff0e190c23bcda73f1c1a40550
e777b62355aad4c65adfa063a2262d0f74280f5849acd9f9b551efe2ef7b782356aa8a143e67892cd503b389b25081d48221caac486f1c812260f79d888a231d21b04d00b78d169c320e74e3cb1e4ddc7bcd9cc2d3577490576b09f5c4103d8b59e55321f4135bb6af78caf05a6a83606c01fcaeb830bac3c931e8cb0b65382cd638ff86b6c01b7a5b1d79a79fe77c563bb7dd57fba0d586b7796698c5a31e7b00ae373d374dbba4514f16181e468a2fb15fd4fbc98cf60795ad6c6e1d1aa6115dfa6e6d0579de721a1925204d389fe6274687cec037e3e842e76fda36685db17113593fc25e1a451fd78cbe42efd1c847c356d3cdb130d9c6171ae13b925a16
409363f862fe87e2e43a1d9e2e9f4278a10e73bfc204bbae1707f03345c2818818eeb1f7394e30a7be426a0a3d6cd97bad3c58027eea946d304d7cdb337778eaf4804e6e7ef4252720b52ee932f51f15a1ea637a859f6d1eb4b89cfe419570d8115dced7db810522ab51f5801e79f06b8e1a4501d0d4381a3d9f83dec0a224f23174c93706cd735ddcbd2f28872cf1e8876ea2b30a133ca3c3523df9a96286d7617ac640e21384347b8b696ddf5b7c4ed3f084af7b6874d10f90083e21e771272aca8a98b028acd56a3158224e41a07b931ad636ada9ad6e212b234fbc8d82f396a87a206c4e5d289eabe8d8d4cb7e2f52e30e6659bb9cfaec26fc622b490c64
4db5173602ead259804f424284c443386abd00fb8aaf1555977d38a5770b6e2ffc44dac915d84456b959c017b9fac35cb3c82362c70c092decade417e8ec48c915828ddbe20fca32665621323c38df224c90a9d4fd1809b56a0ea622aa70e31485c2dd3621fd77c93fab65378f3932b30ab319721a263123a74510a37d6f0a99c0436f86b831bd0d76aa53b8c2577ec01873fcee576abdaa8dd0af2e583d5b91370b8bc80a02ed0e91869cb0bbe3e2f89d5efc02c2e19befe03bb2ce223f11d2b05c7b476073e5d02447284de66807f5dfcdd92d788140ba03f601d4aea4e93c32695e8c9b1f40c8eaca48744ea997cc2ad8dbbd4f1180f5981213c34423be35
595c2f0f7601e9bc7e9ade450d310dc16544d16c0ea44c01661ff474617a6f92d55d4e87b0f990c033260f8929927189a840170b0a113f380c4e624aef13303e8b4a9bce6a8bb46dc7c905ed755faace6faefabd4a2ff0d7f247eb93ee980a09ac2bbd7aa35238156b6d41506c37ce8303d737aa67f5c09a7dd919c408ffd8135737a7bb56f7b4b23aa9812c7e76e801ff7add0a74ec314a186a1718a76181115fc1e4d7dd7d2d43a35b9f0bfc5fb73a82d7fbbc0aec791451227223476f8362a48a8a43ea39550082fb328e493fd734e9c47b385a252f32916c6b85fea8926a7aa7111ecc67c968818b3d4a1b6e9bc31f49d2a6608b27f3362507ec7178ab16
e6e3e9fe9a5bd98a085151054e806e3522769bcfb088284ad6689ce4c7e24ce5c57315528e4f22cdb5f4b5dc6abbfe09117de2c4cd3b6fcf21e9a3c630a05113738fab508e47d36863e5e1e44b6b25f478c27ea016de4af5361c47a0cfbb3315080e4aaa780807b5d512993c83fa32359629538ab0fdae7d6c0575c9b71068e77c3f8b85c7a1d518b55c269a78fa5ad6d54838121f1900da45411de7f97485ca2857747927b073a487c94cbc68cd4964a0c595e39b52a909c81d395242462d375c9aa8a6dba5102976bdcb1ad09af86befbd09cabf75456e98bbf7695efcf12fe56660e16e0726fc3df5e7e50c63436dc472a9a72e7a82abb0e6b8bc6241233c
8ed4f3edd9d7e39ca95e0186fbdbf8f0d91226ca33afbb58394f483e580284293b8907a0e4ea1fd3603b310587b96f53bcdf709381c0664246df081e141766be17ddd49b1b82411ef4516dd587f482c7de9863a64a97fae6f5ad0aa30fd71a322cc72cd82d56abfd7d440476ffb4c5992b2fd7a5aad915052cb3ba47b21ee6966ecc474c648c4711c29a35adb21cb0639bc808a9d848babc93a7097ed99014ea2fccc22a236396fbfd2b16451266eaa684c9f2100a68d427ee5f24067661b392157cad4ca6121f16faa44e3d3384cfa2e7ee06f18d00491777914b036608d414f138d30386796ce5e6672a9290acf045eb4c075e61c4605c20f28ff9f6c2fcb7
4c451e9b325e23b3be3e8b88df43d065651391b85b17989863b5580de7f76c25b4cc9e45bb5603c56b8bc0b7eb3e9a77d716da7b5d3d9cc66e5ffe560fa47040f9a4f0abdb35a8b0235a1725d97034f687de9024036398aee7310fae036bcd3262af19f54e77f5245cd2c37b803692e758f0ecae83c6f6d94135c9ada90172eae0de9a27dbce050e6e0b79bc87b507383a00562ce9580458febc80f6342aa3bb83fa7b37658d61be5dda62ad755971d757be6f04d71b85e4e4bb027321ce097337ffb535fbfbd5f4bf1edbf859b5133e583776dbd30c212901204b17668ee3987d4e4e610d4066d19ea5430cf93d606814ba8d09503f009815222ead2fad8d86
664a6b22705c31f9b322f9d07c53b210472066c46317afdc24f3f25659cab20a8440f51fe6d48ff543d4599585530e575b8b2f94bdf00d52ed36ce8a2e8c96b9070ee5e339caf5dabb1d39ba31fcea153726fdd89821e2e9426c1365dfc7535f69ec536292b3604072019332fa3cf010e1ed1d0b89c2a759a8ef690ca89316e7217df499a29fa94edf08c0bed7d49d7d30e7c6a919a958d0ef98302df5a6b4946d4d198a2027f7bdf4da67cc07881d61ad5de4196ea4e872405c93be9a95c16f5433200a14d849a2c50f27a31b461fd7c5335ca9100c7126fa6b9de4d86f68cf03bd4c963db3d1d2e302efecc5f05ecaa48b71cf0ebed82422e971ba5b03ea1b
df30b10203d78d325dc6d66864b92ba395f046056f47ffe0a923958c49252587ec83bb8d5f6342b1f35b8608ddfdcee9409629ea3d5838a941e28b7dbce8d3e69b0294c45bea6693e413bfdca870f179420cd5f91a026603dc90652a1f429d798ebe0b182307ae72e59d80888d35d9189e1da33d6b0101512c4d9958c3081c60cdfc66389fa5eb1af76c8e5bad3b0d4ebfa2dff0930230305171ed6893640426b8bb7d183c42aa46decc3eb3ba3d7d834943b46e6f139bfbacdfc799306331d60082717074707b7712d3e05f0992814078e7ab789b60a7e6c18895c2227c245b15dd51008eace0d785469e7d1fcbb523461d48b41fdc740b8ae6d1230962e0bb
161d51bf66983b1a6c5a8ee90e86b30a66e750c22bd36fbe1b7d602714623cdaae90e70ae2bb9333b61bae23279beba39a9d5732e090358d67f02f4908bdb8d863920cc23fcef87c1a1787f475393a3231a79dacbcf0981af95ab9b1b2acceb9d11c0db20d44bf3163c9a526d896a487bb0ac1ee5e2284e7e66139bb03c35f2a6ac909540faff07643512de5735544714cebd019802b20573132a53b775dcd2b732290ba56cebbc7764de6135ed671dc457144dd91c39d02725a728bcd3f3817080460984408a0ebfe9668366d614c2f64649f288451cf827e27bfd340b52216e30b4641a926d8e6f981544a90d40e8e48a343c1cdea92e4cc444b217c19af18
2a4ceb419c527bb3a30412ba8c5ade7182ef6ccddf7d897a9958152c70e2c05bb39f61390f1a7ba18cf15179f111b37801d3229effef37125358823ee3d5456e3e5bc588101cbd0948141ec720b3bdcf12ddf68a945fe05284d4bfab51d5d7d84c14fd8710010ad004a77efd186ee3abea4c174bcd1f6e6b1baa9ae3112c106f2420872b35709da45459f9b40dd389e8c5e5d0d881e1db99178bdae49a9249e83ffb56bebecf26b51586bbf423141b72aa9044ca358bbadf451563bd911079e442d91dc79f9520ff88ccda9353f3389d27d582464bd1c519376f00a123fe0be598d3c0dcd521cbec50dd796f9d1c46123861768e7d9cacff18d3cba481035f7c
1f743493c6bfcf193aa6adca72ec5d31291888c279dc37cb81118b2fc8ff37aafbc2ac04e9346f361dc62dd212e6038ad10c51b1cc3a82c165921c18993038227457c4e9535ed4504c69cf1a5b0aca2fdb32d1c729127dd8bc0fd0ad95daa488fbcc1b95d26a47d7088239881820cec4bbb36bc335d732047cc24af76ba86ca45e3a8bcbb68371d22fc3f6655137c096dce4e609d0ab6cf1973a3f334e7a8f557c24546c0dbf03ed054e9ec9ad8dbbea35099f8915f5a3bcf9404a0bd895605394195e18db15431ce5e64cf4d2412879acb1c678165b2dbcae0dabf49e1993bcebe50e08bd1014a38a3212afe3e1bb0bbfc5c8c6a2376da286915818d47e7431
d54cc5a99bd7e661c12a806e292a551fa9edd3acced151f90c41aed1fcb58ba010d2114bf7a099e6bec3d5c592b77beee3e3b6318d0bc146823c79e275689c476ffaddc51cc321a90ceb98a2ad06b26914b53596c51bf80c807e619e047a4f088d056305de3132abd67767caf48980e94f6485c7178d35fe804026e94c8ca7708698d483c9919c228663639520bee43c6ab09bcc763c0b86a390d4be4ac941c21c848c6170b0adb843d3e25948f1b8288e59d1741ef7ac9f937a3f358b5158b7a125bcbb7ae6dbca11d900ebb32d46000a4dedbc894cba62422e5092f502a8f1f8e3dcfaea0c58155df220c53318b031116e832dc2ef01e7a966d5f1f5fd1eed
ac7a604ebd262ecb383fa622742b819b31226c4bf24f6e66263c43147e2836e9dbeee0f0b914f93e36379594d9e5b8c06712df5e58cb10de9788915bda46093ea25e01937c4c115205314670d196a673681875f58bc2a2dbd9c952b4adec6b64a284c1f10c16d7b99009a6060c2b88eeebf045db2207139e5adff92dd11b08571688b8b5d46c9e5912504a86efceee9f73b80e4830b6efadf27075f305ae5fe4c3e78970ea3aaf79298f7582591247f75ab1899d5f8dddfa7d3f12b6792e429130f9a8f53171bf734c0e70c952618bbd8dc1f5abcfaa35d449678f05dc9663f24fbc5fa2320b70ed0ddfa2f945f12bd7fcda9ff226fc3437286ff93970fec331
058a985f9bf35ff49bf43d4deb366bb7b963ef89ad20e0d136c3162084a0db3c64e2fd8659fdb0aff4a0f076bd973494d19b6770744dc2b7735e4ac02dff7ddaf25b28ea40483944924714ae47881d18a14ac0dd302775a0cd745f0059e601d47d011b24b38c4805d22794c02f016ed32491755313ecb2d04b939c1c073c4d6dfc0df2ae1223de60a3b6c2159c451624af8bd0b296bd853a0acf2eca7557e0f9b70253854f21d984be4c84474e8eb5a02d9ce188784bd2aaf223ae693f7ae247b3e9800b8af6a360aa2be11e2bb075448957c5d6cbabdd2bdd33b154e8cdd0a5aebae5b8418359773c928a2dc916e21b4a598c846673427d972dd1d73bf25ea0
ab8e43afd3e520ea9d3ffe643d279e62bc0d51effe94e5cdd3afd347ad138f9a964b8256fe8426ed08ddab320b07c13073b3fe06fbd2534c12796db6feee9540a7cf6b417991eb8980af95b7cb476e9dac373d301abfd3d2c8dc908a99db20974fd306fe96c0a1b0c1be850aa3e476f62f9aa72db26fa88da757558e726c8a3b3bfa62ebd150b53481a2066400279e695fd281a6428797f33b5eaf1223144afab921ae9c97785682e1b7304abf6288362562d4cda133d3aa18fc099d424be9b49ae74718734a976d22bc614c9f42175b8025ceee04988ef3933d2bbf8717ff16fb1a47ab9fabed7e8f2b4d5bff24c96bad491651926e269ac316ec1a59c4ee39
cad5920affc688d379e5344e76a7c19f3f776550ddffd7ce260775013e0634e674a331e80046658eb984ddacf9f2cb6a210fa0d295f4d34df2c46cf997e25c8f63ec6071dc365d7a5cb40decf3138b8478a8264caed8acfbf8943e20552892302ec829318090cb1e42884b5f9d4a47fba26916b5eaf38007f09fadab7d9ce4d6ae7bc35144da701f13d701d78ace7bd54ed0acd042568626286455de39f589b92c04e2ac016d93746618f9c7327e70f6e286d4cb869c604c900a632985a02cce34fa42ee650587968888c8c318851b2b2ab67d1d4bdb567280da6f34b82925c0161e41e3e4422d0b27f688af9d008224e504d4d6a9aa91149ff9506726e4afc6
dbbde66558d5b6db662ce8d13d68a5685942040f3810d1d928ff925dcea02cfc80c28ca86e7ebdf1a16b8fc0df34e2bdcb0b11b91a98dca3d433fb3f0dfaabaa14b2aaf67c3f867783c8e9a067dfe0f56ea86e94b7747b02dd59225fea30afa8180eeba1f917b739f8a5fea91b76e7eee4bc140d9e7cd90ddfaaed86425623396912e9c27ebbba530105b3e142f271dc314f1ba1234562e4594794877b98be6ae806bce604acfa271ec2699df0e522c952059e58d2eefbb0dfce3897fd1f6f1b6fc84c591de67dcd8d5e68691c1fe512bfc243aaf55b77db539769aa9b259de1b9e1d4d8580a99ef835dc7991473af0bec1a4a456d53d494a3b050c367326d95
60dcac9c00f52ac5f875d9ba9a854f25112f6a630a4b917b973a23c102f21fa2fd9e1a0cf5948898af426f36d8ce50ae2c54d5f5b6631d1b40b44eb972166c24719047c0ec004f110879fa5fa03e7c6ebecb3e6baf5015e0bc4e228fd0912a80e9220dd64bddeecfd9de24d09bb01f7532af3564699f564be556b8cb3c6b800c56119d17f6ac43880b511fc493462554bf5159c267d874cafd8b550b250eae216703316a9b42d1e33efdbde8ae32105c5132ebb9454ae924c0b9f26c2e56f7c30aa80200ccf17d04354be2e96f875577f8cce389ea0c841b2457043c2e4ad2db620441755f5845292bfa1be78b6af4fa6436b125e0316964239e031802b79eb1
3d6fd6edf89aa280f3eae9514c73c1dade55316622f6cd64c395c49ec06d9af6673182296c5cc26ff43f29c70033e5234a0f848348b8eaa44aa6848c9decc8d934bb7c303801a68a77f1e0d47398189999f461c6a37bc85e80b5e34e876822956dc4c64959bdf923543baf783e6b808c87d5be07315e354f3acfb6125204f21984b9481fa403ded825b34fe8849a465db8ba6ef331194f577c68e1b58dec5f2d8f5738e5a782e03e651ff05a50629e2080992ea6f261ad30a82de58cc661b2725ec70f057231e64e36db779320bd8dbe64976f294bbc140824e801f9b0e9a34810865c7cd2501984dcd71892629b8b00c8c034e607fa48d2e05570ddfaa786ba
6856d85c82a586cee61d47814562a6aabe1d468117a5b897796538187aec8d228f8df2743cb4c604664f663c3ff2b8289734ded16ea9d412fe39d4e87926ab3cdd643fbe9002e158741ae4d5cfcc78baf0720d3fe2b767187c44bcaf33d6fb7c77312714e8cd71519ff487556ef7a19ab6ba2753dd170e771e1b148aa5e62ead76d20d08335ddc617c25efb474ee5c2b719936ff2bae60978a9fedce8b891320f6656ff4b98c53f81ff79cccb9fc03f4f79c0dc383623d7150b79aede2dca99a4dd3e40e48bdb566d6ee703c1c7ae018700d9b58f7a61434abe6c04eb7b7c5f2d4e104d4a4a661bf99e6af515006a4adc51473d7288961da666b7d1d43424591
47d540021a953a0808f25beabd519dfce4b2a21bfc35a9dd64879776679acd123ea56a0dc4c208ef953b191cdc5b633a8e0dd9757e5e6c2d0cf912cd8e04a4889bc4549a9b155730d22f114c351c56204e6a17b5ae81de09fec257deb7800e6c3b4a0d2d7d0894b77021fab4cbcae5ae9ae1485b848eb4a5073e08fc4fd549609be2cbe257b1b873554d72796dfb79d5348ff4181646925d6c10215516afbaae3f6ea7f709d86c6c88c8694a17c312990c990ef368fd2d5aa6c063a98e8d6b0650fe0981fc86e802944a01ab29d334921b485915eec5bd5d4e86c75e05c7620e06144eeb7ebeabad1a08633688fa8e2b8c47c1f1b09a6104bb7b7454018ecf91
248e5cb860fcc331b2ff2f9e69b478c4219af8b4ef6140f84b943d1ed99d532c7668eaeb429fb78ccbccebbf19506710f122dc2e3c5614c0635ca2410b6a1055cfc290e1c67cf7e8a8ed89e21cb1ea7e553289fc8da2f2bc5971c51e9bf00c42629f95e1a2668591804aab6da7953a3d20b4334d074db8192c49f410af8119fe2bfb43ebc51e4797f55ea3d032be9d4999d7c90e545be411d5cca4f979f0dd6a650d070014e4c5b15ce12eeb978ac59af623f84b9c0bef531ca81531cac4e2cc654f00110d0383af0c05ad7418b9edbaeb8232b47ac4b70a3c43269c130740881f1baaa075e42fe34f43d6e9260cc5553b93eb2b84aa644c2b8967919a0e54bb
2b72edd61782ffbe4e07e271ba9f95ab00e0fea5259b792f13ee1bbe2b3f23950f86a1db328d1da864b38242d59c439ed9cadf3134119a789d6e127977cb9a1ba1c4a200817ec5148100836f1fee8eb6569ff1decd888108572ce8f6013df338bf0d3a38152b9013bb6ecf8cbf9702570d1a28b3e0d5a21fc09dbee26ee573786ad35e1d3c5610f7ca48fcba88c17c6d06c197d08d2f3088ce115a9ef4a20a32f5e8c621603733a3e4c2dd7ec3fa2a60f3db04b89f478657016c96952e3657455195c0294819a14bf3fe039cfb820241f1cf8ec5cd69177c01be1d8e4883fb9f9f50adbfb33f71695637ebe9aa37fab31f90622314b8be0a876be9c5655ccc61
f5ed3dd21f6e80b8dff64f0457455f0efe6095ba5d44f17bb17beb6dbabc1f7238ca2f839ced05d74d6f369d5ba40097a4883ca230c9dc724239c3c3566b09c33bca9385f2de5d5bb1943150c79a5044ecc1da3f191a758f8d92e4893aba52a5dcd59148c79f48a38a6f7353e823164b9cea98421209d9068f5dca28fb6ba59fdf8165563e17f8ffd0434c5f121eae5086dea43b08909fccf2abceb12fba256cc55b63a7a19cfe87fa087e046342c4dc4db3b52ed34c64ba958c0e274aad1fa124fe5cee8aa8d342063b5e7ba9e9f3c97e397a07a4e5abbb93e4456f9981bc8d1d742a19ef056c632a8494e00852160147064217b1661f26c2a09d2e756bef08
688c7933334ee1e7f05496ddbd471c9038afa34bff123260c7835eee12a212b9c454468bae2c9a9870b3ed8add4838cf1e109b6b5d7cac6399652c26568686086a4a08deff6d04a67a3fe517a382bb45b7351fc0f27393a286941e3682946a2f6464a0408d591db3bbf72e4c9ddb65a9c76c01a12ad8069fb8f7516c51d85aa14a5aecf1ef9afcf20c408550ecb0038dc79f039d71c51778ba2378eb56f23b718b1813257461daa95acbe5345c29f0919ad674c5424eb85ed04beb73fd2d16763b8d10c8f04a33659451bb0e3975bbf39ceb928a80bc5723f618c29fa28406b99eb2ea7accee76236f81cf910f65ae67ab1f97bbfc0987d3b93074f4821dbfd5
70354678391980c1b372e2768bc5b3bf863f743f44b02cbd251da98b90a0d7ad6df65a3db3417a736ba23444f162ac4b952dd494ed0c36f23327447ab8291820693445b00e96dc4c1564db5c44b48e63eec6ac6516c3ad586dca7d02ea59663fa265bb5354d28daa24bc38af8478075098fb21614c3cda599f6b900e44f3ff9a8a48c488b25f3da70a280a410f67326c5c051b4bd19ae6f95e0c3c3e5d532e5c8988f2bc4f4e35bcd4a7703d279826fc6b3a2ba637ed8388dbfe2dee5c03b43b8f8b9c6117d6a8c2bf8b2ef9260c6b5745d043f364a995ae74ee926fba142b964025f4ecbf92fbd465650e19e474985bd5a139b0c5ffe32b0194e68d566aff7e
7d4df4c0a6c032012dcbff02ddd736f02b5c1a7e5b6441701dc8cef85c29b474f4e3f90f2be48459288b995959eb432f9208750ae531ebe5529adbd364f9ca4c3924aa5c714992504149fd0259d2503a6e16b8087b854d876c1fef9b914d815ed2cbd6bcfaddca2acd80be22191d6705ca162a33ffb93a23e888eb9353f37a7220ab2298058de7e66d84c248dc50b775f3498c8e26e3b45862cb04f4111130d16e847d840d0a65b63c3a43c49661bc8994501071ae1956684fbff3ebe473fb5ba8988632faacb5ad5f72c4211df9e89ec41b6fd020f4f29a70a35a01327a2c15d4bea37719274aa2d26db210cce18e2f2b5463e081cbee29e56a69dc50644a0e
dc86cde48669a5f0ce6bc8376bebd0ecadc411c7f40db46a852aac62e23842de095afdd459114ea6f2b5f9e3e627d8a034416407a584c653949cd8e903246c37e010b4d2bfd43c37bdcd5cd6f34859fd791d09f2a5db29da621ad908f2072ce5bd6ae96803d05cdbd8c272d06cb61060296932b48fa435440bbf1732a7ad9830562ca395c5a2256a7c3d556d4974eb833ac53e05694db354e682812590d5f989c857e310e8fb1c2dc04e03e8dfa590cd3aeff623d3506a76853f48e512061542b812fcbad4b6ce52796d62ddf8e34dbe4d04248a8be4ae30695179a593213ae5ed8fc331f8b294b3b76f0c402bfa5571a24f577ee1698b3b56a5c4f29d3797f7
f1893a42cbc4f0e88c1c81f0837a0112fbffea3f68767483a4047c7397c9266d75d6ac7d5c74f65d6690efe411d7269695255534bbd2e9147c07ee50146fb550b4ed1790a18008dec0b230bc742c52d48e0c92be3f34589a589f6dc4f616463ca9c41b16d8c8f7e41169572ea7298c515f13468715ff3394dfaa4532beeb74cd48817c195a5ca1392113069c680b66ec8ddef1261ea42518174cdcdd625b61ba81c7b9ffc27ad49a32048fb2392f94fd3877b2c644fdbaf10275657b7a955ccfd62c92093e07c71fae5ceeb05ff62ea9344a137c71085afa578492777a141b2f83da92134eb1a1377699cd3514aafc97f350e4d587fde58f15821a14ab2f720f
2f005b38b9e9b536ad8dd683f68864dfdc8d2cd470f91dedad81020d3430f677e884e67916cd8c89da281d75b67b72c4dfec25765cc0e762ded5c5df61732193c64cc2ae1b835f8cb53dd508ba409153643115e09ba82aae49e2a385a684e010c76732f3a6a5ebf0e7f23a368deeffe02c88d7d7b36a20343ccf305845dc9c11ac73abe16a7330566e35c5a4a3652ecaeb0a080f3bf85d9eac5fa6fbe1b433938cd93671fe1123d80845f13f94a420cd809d4ae8b9b29cd2fb2f63642543f3394ab48984ef369221289fe9ad8bb24109aa3fc381fd80f384616f2973583038d2e2fc43438a1e6f9b3cc1f4616805b3ee39f53996a36ea6754439af76cc2760ac
d5c75f16d6d8609c04680059e422126dde420112e24c2f763b82777a6053de5aff1522e3fc7d62a18b198b336c49c25e5010e617bc7e61fe72c61dde685810ea60f013742b67314a419f27bd1ea1e8813847f3d29045b85766f4a1b6d59856969f1bd06632aef2f6fc9e451f2599a7cd4e47bef021146a738fc715925c2119cac03584c55b145211fc8f6aff681707d402c00f62a47bbf322af43f07278b82d776bb6dddb82fa6869c4c8b6a2e9b237c8ece5eba21ac6f3e3c870eb6223ccab3ffabdfe3a9d1ceac0e45a7d785111b9db1dd1d239c6f9c793864af5ea6bc02146dc86de90b2b9a0e2ace1c267a6d6e9a5c3d0c229ea92430ae8dbd4178e3f0b3
d3bdfd36c22e015497a5b4d46b072b46f364c9933e80e1cb7ca8c2ce544315e21c66df096a8379dab820122e756e39097cac85061703e45d40a36727d9c50cd28cdb0d30dbde3847c4c79c929da6662d595d56d3fd408b09ab3b289e989234bbe097af0a96d4e33fbe12d1f00ec83200d8b81ba8da83f1bff2b654155d29b0ec6fa49ea9e82750e3151613a86002ff2559fb67f036d00a3956db0ce7ebb13b906444cffd934cd3517dd0326859f1143fbfe7788770cbbd5e9823532697c385373852bebc271582fcbaa41292d5df3d8f5e54e9f4375c94c16e997e032a991005134d1bb4c208a2f9860a077637140f5cb6f124ab4f80ac09e90a53e83d493f98
ccfd596a21f21f16d37c45e60a0d1fd51f0b5fb05697645920443ac44ca1d1c24d00dfa6c400806bc25b7723940ac4a5e07bdccb351ecde0959207cefb3c99738519b86c2b794007ff2162b205357168101879638c8e4ad7532c75179898d6f960a3561318caf2bb108879da6004ca666203464313add0933d79d3348876e8cdfba8c6a1e8b291901c5e0d24d63ee718a6200a128e5e36d0f7ef514d70999c0a8fa76c41feaca586625f3887fbbd419d8b3ed7de91e790108e15c65d6bd936f8b7615f0ae88b0c79bae4c7fe023efb26318ca5fd16a338d72b1d372aa5b5c10831cfe94071962355be1c1d7a363711261ddab5ecf802cbf3b668e1520f6b1341
77bd76783a17c393912c364d32944a00cdbbfcff60e3ab91e8e8df98070a0e6920286cbf982f839236a98fec281d974b46eb4b43e03514730e26e80034da5019f9f528364582435454faefa905b1fd4ac326592d099d68dac2a0874a68c099266eabb8e47631c6e2414fa7084dc7a60b00f530428ea613102b0ef54ea4ead5e1fc4326655bd9fff975e954cbb2df38d6832e5409dc55ec4a55bbe229184319d104dc892817f2c8916839ca9e53c275c14fc8a4f99ace910bc7065b77bbd444a81b6b5e9449b695b372a2bce7a2f0a32ed3af40a31618b0a0ffd92c87fd1679a1d53781b0e0e6302f4ac5cc2a8a7a03da8b8cd18010f27ad80f3584cd0b27b72a
7942372c21defa5055bc10b17ebd7ee2ff8ae55e56276fb5da9e58b982af32c29092cf6122717616f52481f93a7170f1ec49e22cbfd957866892ee0bd4a6f0f7ce8b11a85a40277e50b544c90d6ba04dec6819ff116445faeee8c09663980e15b4738d91e70e8e68e7e821ba328f4e1fd25c5bf95995bed47a083ca6b3e775b88658b4f43ec89be91f5082d5c158a3540c9d643c51eaba20203ca9058ff04f6212b7868ad9a7ac0029e1f7122da798b52d19feaf5843a5b41096de5edc0ed6973c31f6b8dc18fb9235bf9ceb3e575887acff54ceb3b13fa4cf75e534318718705ee9d9083b52d86db39fddd141054a4d07ceb27b531b224b82aa12f90f06db6d
ec3aa5111a4d9789a7dec41fe5f8f34b15956ee7076f112d4a8692970f6098f149865b3f805effe375151fd86b225a6d9cfdbcb8ef422d9cfe2cd071c00c9268770421190f5d6b21965ddeec607a1234ee50ff0955e5203ca1b8bb16eeb2480ea6ac780a32876d9d4520f8ee05561870afb05a0f00c6d132cc80a7eb185f86d86f8aa39a4800c3b81fe7669ebdb9c4056c61c3ed29b5291deba4ed60fdbb23bb0bda4f53104ce7cf5d6c76dbc4a00561b48d4f4687a2d6a7cea2db459ac4a5f44e349db4e00177c10663a757cbf5eef6692a2cb3fbc31f3bf691e62c875c11a9dfae86050b9fde3ddd2eeb2c825cc93e9dbe6de16c0091bc969d2d9edb11b9e6
5e21e11e417b4580af2255db99e60a0732fbb59f9df11d2e8f502bd5abf47d163270d3838b4d17c6d2130b67da2d319a8271d23be75ba47af7fd8ecc12b964e94ab827cae710d98717ef52cea27eca64879f553e27afa716f0bd01ee6bda0010c2eab3d506f9312032c4853b47df3cd5cf0c6cab915d2336e556e87d3f3289c2c2375f5af2f03b27907018e162afc08b412d61eab6a1bf866262c1f6294c3e5e3b85656d6057d0f105129ca44ccf49bf2d36c358b1ce450773f7524246181284b06f17acdd9bc75e543675751e40a73a71a7cc78d425b7b0006089987623973bf2aea6f43e4c0c9bf1061e78c0afc68ef25ae279e73c84a7f5f2a08584e6937e
a8097e2d81516fba9d970fd8e04ce0e2c650db410b5ca3fe5e90c11ac0310469dfe322ae4812fb092e24a0e665a0208f8e13f6303d5b59ea9e4761e644bcb396faaecdde8716bb28eb4e2cd041648460d29a29a0a9be77e0280925c8e46ae2d6a9fa17313fd527a3735d2eaa8ebcc54bedfadf3cb537033e4c52626665bdedf1f93b196c3692227857bf2ab43b08fe46a182077d1d69f1857a108f8076f26c5f5e27cc1028db884bbee0393f59bafac70279cf20dc717a4b3fc319a12b17cecb3967f8ea3c83a23e9708235813a16dec8727af2c1cda7aa7df1d19f1e5b58cbc04353edb17cbb7c9dc9b703c9c4b29df5357373ce76fcf6d77744244eb21ba0a
565548ec15a6fb249ed23ad09902c52da918cb01051b60592f12d29083233de7d0f53c932b4f320a2d0b2aed9552e4569efee32252e825b2262627043e804c7c48d41b4c1e0daf2d23c112be34cae897857672dc33cacf669955da25bf3d081bee566d601c963d1ea09554fe73671008d99f8804b41d8a5ef79c6950b0b0ed7ea165ac09eb43122c66966a10ad0e56198ca7fbaf0cece80791f5cbe21f3de670a8ba7e865eaf7b8fa928c6d7358c1b013422d3889796ee69bb2f3c6bf9512e77a43b762083b20fd85b6abf3cebe57cde8412be5e6e651d76d530d9ad2e44dbc1bb113ca1ebafa9992ec13753716aa3e0c0c9e0bef8fe0f579dc16b2b1400dd05
3faf4f49a032dcbdf08a82e73d5b1342ecc259201fef32081d79a2aa553375b083718b15bd20c21f57e2c0fe875220153e0219d82e4c27d715dbb94dbc3d70d04e325104b6e668b46725bd69a23f7e8461069e123a6d0dbe37a7a9dbbaa90dff5de1503d66a456641a833a12230161491f2cd1db895c2532e09de159f80f9ca90bb4eb540b05e75bdd95e23df2da45f9dfb63e6e628efd4cfaf76d91a61cf8add5ea01c656ac4a9abdd8fd0d3234e69a024b5c1d13bbfaafad5e694b8e82ccf6fd0d0944931a567c3b03bd011718c48aa16fcf31403ce029b6390e56f614077a0276d3542dec432549fbf5afc8968607d3b44a9745cf231f15594dc1515b5096
c4177b8af2d33a5bf42d2337e1b81299fb352f1c87dca61c050d5c55a8cb2996907627344726c98f4567aac469b4abde767881f5e63e0477df7b05cbfaf0eda41e7bb23983611a7aa59b40d9b1252b1becc30c7c453711d4648e941bf8ed866f1c48e8a5aa54a638fd1d40e0844dcf7c5627ed191092dce31691c852908003c64a5704ad0e8aecbf76858c01d017da7b23ed8273bf48d99c30fc8d3df3e644706e29349d2ee371979b3ed0dd1e1a8e71188cc5fb5d3ad0804d68879e4679ab19b13e950b3046755d32bb1503df92a41459bc52712a6951df49d7692e1d6dfb84d54eb567545000255b0c2bd41edff7954771334966e6d9419f93dc5d205431a0
bf84d9658d36420798037ef5bb4f122068cb76cab24f9942f6ebe217e34fb1479fb29cd1a2c60c2941918bd06fb6de16c918ddb895b703dc5e20c3c3072513bde1588417d19f7b229d9beae4cee5880ea0653abc34456d8115ea8e9a94e92fb92b7c34647b1cbf1afdd04736c3f33ea0cbcd7a0846f2154c362e3c8af4716b930b11aab517e875ea456f3c406eb2afb2472a965c7164e6bd711f8974a059fa6b32258932403b52f0b086d81aa804783290ad8ca0fdeff81b6bb4012fd347debfe87e0a162399c9f079e40687f4fc2a39f158c6ff51ef00be10bcab1e99de34549d8b2c264806e9b59622ae7a3f9cfaab7443451b8fabf9534ba94001a57eb248
7bb913acc2d9df8baa2546861f98b3c716c118f3785d17a90c1c8ca24a69bbdb4c99ad8d14e001af2a847cfc798972e9b9f43433ef05401576b988d74dab0e9cdadb7eef3269cb973e71f66761a775394546a1a7c58608dd769577beef9a61fc8924a47d1415884388ddb4d5ca6411c10741f0be06759952085b5355f0f014a8cbb29534d2a097a3ade81af2d5df45997252fa38b224208f012c1437cd295f6b616a3e0061ac429876b9a3b15f788aa96306a8ee88a2740e2516d5b32f3cb978e1fbc0e5d516fc63aeaf1bc12a185fce070ef05eae81d75d67fa9312f02f3d440f730cd82980f6bb831a15d223f5dc3673a548a861caf0357c69a7900d4ec189
a3bf9e9e605119cd1696b4baf1d8dbc31f99a3f7570fb026958a0904e3f31ec07d7cfe2d028d63f0c8c183f75bd32514052f6130f02cbe1bdf63f23fa5dd95d4b25c9b98ebe739db8a39aac8640a2836bb7ef3422bbff9d0f85d717c0af51ef84988c91da660888b695eeda254b2158a28181ba9c0eb2703310cd3b4cd40f0f46f1ba3d795258646c330190ac4ec687aa4a6862280580f3d0e6b2b91a45611a495c114af0a366a00a1608cbc182ae4f44e8e83228b15d936b175e7d4fe7d08e1cf87650cc615292c849d8089b0d69e6354f028e4b5e15f0a148ab41747c7cca624d3346c48358e662b0649453bcebe5dd1c12c8f86c518d1b14694dd06c8dfaf
6c7af7d7c166b1dce8c903e1d441ef96f897b78c6c50d254d89a8359671455716f8e7e62afb1c9f9f8642b9f6661505d9f36f084d4f098ca3c36649bef60a9e1d29126592c4ad52eb4353030000c90d241d53b662e4bd652eb355326ebe712f5830dc4bf7e547e6df1864ab1668e5b54fb66600ead92cbc1fce7f92d069472de248cf6a768bdd6fab089400d0c87c2080cd0f3816726604007b2656f049f58444cae2063ce77974ec7c7ebdf53428a02d671f602b9bd04ae8249b7e75e07df2a8a416688dd74c93565dfa7771e58e57670bab8298f61f4e1ba2e9594762f9aea2156303e9d8da671b256d86f47126d976514737645c1d509e62756d1850d62a5
810b28d85af75c6f783ab2bd487b450de03fbd6c399921545c527934be68b2d154a1d1f63e025ca640976170a935588bbc11042e96be0395dff386fab8f04482a50be186671c45736b946d4564b945b048c9e6d0542a18db57be9bc1613404fe8547127ef6fd0514422828c445ca90afb2d20eca52daa8b8763f266f9471819721aa2d0aeca198abd58b43b4d3b5bffa3b48e952ff9c16284820a64ffeaca044ada19057e57343ed952d2e3159339853477d53a3252631b1e30bca6d83250e7cccf67d1ae2e66ba15af0747275c57e009ea7e40b297b7a40498c16359f38ca85ebffe08749b517bd405c5d6119771273e69a4efe6a9ee292912f522394d6fe3a
40c9fd02ca57b6cec273c553331420e509b14d64370a902c5026751f826a8a2313a8c26844be6b2e2bc40b915e12c014907acaa5195be1a64d7aead43caea5bfd3f5e12a4f58c08e95fcc93b3aedd4b355333a5102a48854cb82bc615bb150d5b517c093655454e42fe0b84227d6192b25e93e13a72b9c0fe625e8d03d2d494095ea55d6a92b56324340f0027baedba98021e96223ce0e58a2f2b53341a8951d2871dda6cdcc48965bc494b2799ad3bff7769f6f300f9b5ada939541644668c08823fe1fceff8bd822c103dcea5142c63a1155aa21f85ec47efa57477db001049913d9087d9cdca1c79757c3d3d1593c9d466ebe2906c8ccbad40b7739e9492d
3d261ac7165dfbf219c6c071430c40198064fc502194df622b979c70518ec43b0855220cedca417d1b17b8146a65f5fd444a3313b8bf4e3b7b03606ef5d428ccf0aa846e95a481c6997295b8882aef7c9d6702065923fbac6f8f0dbe940dc6369e86fd20bfec9d749b513c7c87879848fd25414926dcb207d663caa77a174c6736e5cde1a52a531f45e3c2ec6c0135b23eba3a9ae74c2e9696eeabe688ad55fc34f9521ba5485296e4220b766624a4851ddd9026f9b4ba1632b9d93442396b9d51c6fb70cea9dfc2ef2c2253a3f8e41388a2f21550a353c40a4e44735f8d6120c6bebb7770494a18eee851ab6ab8f2792ec5b302a93fe54907651de583fc03c0
517d125fb611830485e1e9a922c5dd6b92c70c0aa9e6253e92d2f414d754ffb3bef87a07b70d57ad01093fe7ddfe3a6daca7ff2420b0e9ac106956eb4530b6231759b834d1b7c18cc52bc95b7998e1801b58699c77cef35359e4d1963de043999cf6063ccd5d6808f7db88c335d02ba2c319897517820da30d0051b05722b2925e52b17992dbad707d418ed48168012da1d3a0392d5360934d43c7ff3dd4e8835da96bd58c1033549ae4c4acdc75d522a2b2466c261ee9298ba438ade565990009b997f4029741dd26d988227e9d6be289b05c8a552adbfb78e96cc3908b19dc7a07e570825958c791bd56baf31c1649fbad3e76835cc0f7a7683cdac2577c6d
15e1c9492ab8ff0ea89813d5917e7dbb49a7585699c436709b99f4f2b4a699df584c0e06c2454616f2bbae6bb87a275f83055c22134284ff6ff6a049ae7421add9f60fac2b5ceff7e9e932b14df5fcb220f5953854e3e8bd22660ceb33c6d8a4e4d95e50a3cc5461d10f90574284615f0da3f5ac4d69487a209df81d511ca61e2b2ad7fec1e92d6b73aec594e6abbcab5d792f1da1b8e85e07c586e5856690caffaf557074e6bb17e29bca9a00e3265dd61f983c6158093584487af92dd0acdd1e458ef08ef073e66d41f1dace3e13d9c3ef19afd67233d96bcbeeb455211800044900a37a90586aadc1a9e69a85c2fe2efd0587f71fca320206916de1cf4569
958b11e47c765973e09be46971e0b58b7dfc7da910a04316e9a6a1e2da5db37626498d4a78ebadf06fd1d562060b15625ac7cb9e0e61172f45066fe8aef63a7d2626268e513fd5ec210bcb72e3cad7a1a12a4567a83092d9b299db3d2eb3caf3693074c02cdf128734ef86acddf704d601a79b362a5f82c37eabd3ccd6394569a1e7770a802854e681460ec353f90b7284dfcee2cdccd9c74e130c82dfea9c0da8d647eee28559f9ae4dabf56f85e99c8b14d2fd37c68ad91fa54c21cd7b344ecf0ac64dcaecdb907cbd1f91511c492c6436fa56c3a114abce42e4abe20fe5fc78b91ebb0cc4f5819d1b751c7abde5d2c181df50daf0edc8dc376b7c294ab405
10cb006efcbb6eb0022de5a9b04a9d259dd3ef12d4be7bee433cd102562667d250406ad0937cd86572c4952a786fdbdbcdc87d56fb48c93fca60c2e2e63fef3d718f6e5ff64927dfb303a555279c3bf7d1f176b0b995333fca04a01d381b31260147312efdb0ee27058b95cbe9a3d135cb231a6a5c9ef472303d81ae8767dc06a567d800cdcdaadb0619143ef7be15972350213b00684e4c6f38132c2e1b725f11d6f9b51ee9224d17e3de6260d1456b254f47597a06e76d4d22c3b48b686e5332907ef320c1c0dc9366e253a7e71034be9a708a5e47c0770b033e14df355826e72872b40e4487663cd13c17b0592dddf11e15eade3a4cd89f5009a6c1e7d5f0
6aab0ad1e2c4512cd54120a207f0e11d5cf9629c094f68b6bae05ceeb41d33e5a00a9cef8d8b8c3fda3a51cdb1aa81b308b8e612d932c7730f8df816c42373b3f04eba92a1db093e10f5e2c2e27a3f8696c9fdef2fac751eff23461315beb5da99a269cb2ec1ef2d9865f6ae7a9c468e2d0725f682910201ba540f973208ddede522a3fcbe6d62592cf10c1308a6ee64a72032a1d50392ac880f81bcee0274d2942cdee8533c80fba3e78d4615645b68dee3de9b74a91b4d132c4a470f246aa1c26712da4c4bdbd184e5eac379982840c602b28a8eaca3af09ded004707868a934537589152871b7ec30b7d6b45a4e351553c43bcffd5d9b2bd2dee0cbce6a35
ac1f2c576c4260692fd0081d76b85e4d7ce41cf78c5c25cd1ef5a96af3e49458229b9c7a38a15430ef2f4e51593933597855b9af73614710bcf63bdc09a04a7acd8d7268c24bbe07c949b0aaccff3f139099723cc49be957eb5ae24e0ac626f842b4a3e827971a1232bfd799e8fc64b3437da799e3a481d96c51d0b482284f63d020e17b96510ae8a8fd63b392b53279c85799fa144705e5a1f35e8fd630ccc1cfff448cb41faf518820ea64ead40d0c09c2c0d24fb004ded82efe0872b3da604b6658f1480abd80777866b9bc8cb119546efef365f2d7f45753415c35a8e7d0d830d68b054b6c49e5c6ee74927a1b27e6b565a4ea9d5c08d21d2ad1c77688b7
9d2f3805a0d14ec24caaa4cfefbf4a867648a97a4a740c29df64f04a95a2e85004979ae1da51b13e9277de2e28b64ee5b10822d58237d0aa4c533486ea36c3330cb39f287bd60679b4c294c9c45f93b2ddab578e1f267adaff84c122a3d722a073b1aadcda01f115c12bab67b8ea1b94317def8aec8bf1d108224907cb6a88685ae67c19ca489059ec7ee2cc8d3c7bce94072e27bb2d931096699cf669a80021e1fa52e334f1ea9ee8305901bbbb388f6ae56cdbd65700deca35dd18393ba6d1e01a60ec37916b13f5f079f34e8f9ad6fc328ecfa1aedf9c5e36266da599fa87c30269801b893310b4e1d8cc04d8fd28b212493acc1149d47bcff4810bcde93c
fcc4b633f3cd8d1e1851c8a037940eb110743ff8a69a9000f249f78c2028080187fd720fff01163512a6d7d0b857abf4f0eeb186dd2777157d986a54f5fea316aaaa19a4fb0bfe7908d4c3a4a842edf7b177875362d2a0fcebc23d8f79992d21ba3772b2df1d21a5267bf193f7f91778f2c007eafcb63d1a95acdf43134e87bddc61d15f6ccce708171f55a4e9d37836b0125769dee54bfb5d82be0f1e8335e5bec5b608f284dfc8d1c828254c285e4af8b8266f09aeca60631ee0058f68b9adff8b8789f50601bab17e564a4e09b8a8b3f645dc334d80cc466b6ee3bd9f1681fba2b7fb3d4f203ec48116f521fb961761d721b9ce2c5fea9116bffa78d0233b
11d21435a9e722de5c85c19aecacda5b3ed028e1dd710018a930017c924fbb4226d74c61183b952955e92a8e500a24e96c7767c5450a1a32d04f20047adf7b6d3a41f3b38d4155f876040e961884f799d7b99bc184bad362111ed027a3332f77716e491c4e5f3332b03d2303f048bcb6e659fbb28be4157e6854a4fd9fbd125a4211172e624a791a631e92cba1f624b0bdeffa3b1c5b8cc119aba54131299259f567f8b54f813b3773d1615507502560352d522330710c6c8f99ab2a30702635a4f440e8d0778904370bbaf907b889405131f9b588a026001e3a7c013859fd46c997320cc9aaa12825d81530959072779419346522e95579c7f7ed27425aff23
dea701d06831224bbeb9517d19d84d9c86f0af8e10939c98b2c1e02404c789dc98423c86a117e085d13e376aa30282a2ecc7f9ccb2cad74874da5070126fde8ef3b467aad2a054f83960cef85d2855c6a87a801b805491ae64012e268745ac45c7aa2d46c5aa03db2936a19bfa2e9a834eb0b0830ffea4cfb75e5059d7181bf309b36663963bd43fa7e587ca62a59b854549358c34a2e73778362aeea818cb1e47bab7e3ec564becaa052dd62787412ca5f1bfbc6e84688182d35ecfffb39704e4517410d55bac957d6ea5e129645d77175cb879b7d8d00ea9c621cd66877ab219e059a42a77071a36fde918a66d349329caf1f1ee77087b7cb926ea1676a4a4
937593174179515732123e962489f147c35771e0a96eb9cf5689ef48c03b5f59281c3ea2acccf5c69e9b92c8251096c029c5e1c2a2e2cc5aad7d7ded19933db9ac61f36adfa9dbba5e5e8d83e8c11a3fa949aa4818915b13164027fbf0a8ba800373bb15d5efe2cbf8e8492c3f57fcc2f7969d2b3a1745945178157c26a59dc09a8a84bac15a10e23df9e40a7c352328f78bb67b09fdbba155875da6696fc74224151b6cc6b389216018cb08cf8de55721e83971ba4a391af27708e88bb556df7b762d6c06d0c828e712b95ccad173c31c4e2882c98d5cc97bb1c8c8e5a40cd45af08fac1cf2d9936e856f6c65f8107396306fcee53348db38e290919eddebe1
6e98960e524167bd1398a36da17c78366667487a4794e3a3f69b5dbb534a229f4da61c49da309df48098a697125feb1872bfeb5fc4f2fde0dc750857bf9fb4f6a1bdfc5dd67268eb04f3279ae80fb9c858627d47d3c856760e1a92d623fec7ffa20478d5ab78266b35bec34180d67357919b07f95894a9ace335b5c731eac492830bf5e7ad68124ecdba7ea763a1bf187d3be6078b314d56c462ca4d63616df7c678a287e3c96e865d5126a3f7afa091a22006e7ea31abbb7525e9cacd1a471776eeee44b265145c9a380a7245efb78be8d8c57220b685116ad5d385c72ab32593d8fe915abf9bcca88aadee35331197dfa253bec08500151e59caa97c480a34
fab57b2c5ca0f5d0d02350b96cdea0bb23767255fea1eb4b28874367e23aefa64113ee7d632298a50c60ff5c5842640c24d724af53279cfbb088fa4d147be7efa87c9b4faf40991c2245f053570e3ef1e23b933e681324c2a6a3d7835a3331390705c521c44419da498ff936abdc3ee85a11768fee2359e5e7e20ac72c2c0d5e4a76da4c4f17f4845268e177df198ae192a6fd4f34e7b616a3c49a647667f50e39943d82dc323c9b744cd0c559fe796b07612e56428e386cbd5fca31dabc0ea7b610323300141442f0ede2d8c604cb6a007a7408c6a88286c65bd00dee9ebe5e13489f32eb7cda191271c0f5d3f2271f24f1396ecd19389c1c854cb4fbb383db
1b8d9730fcc0fb22a3ede4b31bcff9746555dabbf347487c2230db9abace40aa8defeef47aa807d8ada9e921a8f6395cc93ccbf53fe2766f845923fbe3293d347486c108f10d18bf319077d69a987db4014b5d18d7bd03ae77acb7a557a8ce0e755c7b80271a01c7fe5ac4d624d4222593f6e1ffc6c808630a340feace65a71b5e38b5e7fcda2c860c08ae8edef50bcc23855c0acdd266dcd015b44677f9a6ef3f93252b63dc8d14cca7e59bc2242e6700f9d4767294197b2dad76d97644e9040ad399a9bf42f26f73561229d1c8ec84ff33b0224443cbe4a03aefc74a2b2e80620d1397eee98426c1bf2a0d1df5f4c491cd55fc9917f02c000620dae8bc0ee1
65b5134a436da0cf54fcb942ac333dc91d109f2f633b9b9091d64fdbf3d7e3365b0e0f0ee382c77e4e4f00d8a6bfeb57c53eaba2d9e6142183cd2294fdf2428c44f602cf7ad747274268abe4cdc8e0dc38c1dc3e5cefb6941209916298ff88b8cfafe8851da8925588b864184e9fc1515cf96e7a499d749c173b0cc8f2ebed6d365e75a8398914eef2a1752e703e0a591c57c0895db9107b090c68bc76231dd6391436b57358f73545b2c054c414e3a193055d731ea57dd2c6bd2e3c6dd5ca1551a43b02e1da46b89beeaedd63647627640fece8f1ef3608f4723f101f0cc050b47dc124a1cb5e83153bab34c2bf8b778eea53b2f8b5f338fdd7e8bf87c39fd7
d102ab280062096a7328478ee605dbc0042c5c686152f9f1a6c43a8e9b1ff548603d84e579398242266140c1677d031766bada3aa65de667719398ff224b4d686809a94686e47323f0ff62c8e04c85d3a5de43f4ee4fcd344306e8ad2db52773ee3f8010e722dcbc9aae8a8bd375f885b9e127e24c9f07dde242c50a5242c8bbde4a66e5200c5bc1749f849e488e50e3a2b834011e7a8c0b1e889406fe1a125d6563946e58957b2c13c96a00828b62b84e3dd9474251182cf5cd7e7e0b49fa6cdc67c679ca7219180958a732fe64049e8affd0af5ecf421be9e159a505fb8e2f05740ddf4e06bac09a85cc10898f902d6d5bfb44b54e8c7b9a009c72c7b6e332
539844f8a50c96132af43c96de6149ab3c2b1b7c4079a003d6d8faf1e4e8a32ea4c7e73ce399627526b15fd448e6bf2700f255ef978b3c47b88d413ae32a4c81809b267ab6df333da22896e722f3d8da9fde420d3eb4706357d2674bc1875f10f1241a59222f8b9a91ca68071e58a352f31bb4095b2b4cca14ce1b286aa854e4d14b3784c62e933418c62887fff7ad8271b6b43419db926f06eab8dd57259865a7de8c46372ab89d5f8eb0e84452f5900bad29a8ae0c874dee5e2ce6f55d86bd24e61471e0eb4d91db4303884647962b3ca9e3cc35019f46c449df7ba1e3ff04c8b0e0f360316534df5d8b2caff2a91c43820c04364db360e825ab718271f639
9f073df391140bedfa611b1b8643c3108724be8ccc932b8a474c3b89786d3495bb61e9f3514ce15fd5286a2dbbb45889c5277843a86b298e35b42ea82dc228b9f552fa493ae531b4e3e12a15699712ffdd16bba6529c440801314ee22f57497b35a5bdfbcd5dc6e9f1baf840dd36783842be8cd5ee9648cf99e7c121d1cabc40096079f352888b3e2c71c5b6b87890fef542553af79f9ef896b0d0a9ff6336c00c9cb5a8b24809068f04b45ab60bab748b82f8150f5d13eeaa8516ac5ddc848f3a52e9a371f9d3a00e630e45deff713a843c439d95681197e5e2f0219c84d293c57de31568329ad03a751706e310e6c527f82025e8005d1ec2e5860d6ca5fc54
0198c21aa2cefc08bbc3360e762c1cf8d6f0873faa78e037000d3628ec9ef49219cf898c9a0e14058a3eff0f2a3bad19bb37b71ceb9d20a13b1026a2b89e9ae60e46449a6af0b27167768af393b2778946a08fccf3bc2a4e5c9a6651a822c2f231d1f3dca853d4ec2694f9708ae7fbe263af7a8a151f3aa68379a785df7a3f3b97a6f28379721268f1f61912cd03af7dc438969c4a009fda6f5d3d1588f3c95c00c4ae5f1099b4886255c92ea330ad72f2872ab8fb2bad0db56c814e656aec4be40bf36ae5b4ec0cd7b45cd0d417076ff386aae0bc48f3074856220d579f67c9ba5460bf7b49801981c904801cf1385da8d4b5249c6f9394a91ce3b40404428b
943b772d0c8bdc57469f9fc077ff30bd32edd84d1761bd9262dd799a170a99832b5066b8311d5ab6ef1d1ae3a2b0c1ac9e9eda40d386b16c17b6ae28587358f8aab48b994dafc96e780587409298175f441826606ebd6805d24d5f7a9c352b5af3dd1f27f5b3b20da0c1f8a295dc1c2fdeb85f19f5848587e3c62134fb7519e4a17beb6a7a976b1640fbb35bae41dff3b5f489bc7b1563ddc9524755711fb58642838cee6cbd24ce8ce1e54cbb6997c78ceba2222c20ec795750de92a36feeafdbc1a81a26afef2532cb12ec61d4eff06c82cd90ac4cb92ba534a0e72c1d8d45431d10acc0a4dd72d28a789d19249c9b927007d949490a06afdb3bc97194c88a
9fdfae38eedbf0a3180cae53cf9ea23b90ac9b8904c65d7413c0b20294d94d3c993028fb7adaef8891e08c1426480875a332647454daee831dbb27911785e2c801c97b49cedb5b01784aa8d56a4123a8d88c801689f90f3a65c8abda4ee99ce1c50df26c5a5ac7d377eaf9b7f77db43020cfbb3017271b06263262dfa10d7d02915dc5b26ffd7e9b371636b2edcd791e7e0db366df9213e298231f80402ef1afdcd6810f185655277284d09f1a35e31b7bca99377ecce98b4bb13878068a26118318e6c2635aadb6e6881b6b82b56d2de278219261573c128af07632769803b758b777f2895922a7b4733c1ccebc5a712a7140ac3f46f93661427bf638ec0aea
6fcd03120193eec860115603f05c4b9a67f0b9e3b92feeda1ea7c2f6ed4169cb67097349610d23cbaf06d53ad6816928eba31b8ee912ea8b1de9bdc8d5a5ca895d13646144c6d47ef322c79c76cfb69ac547e3f7bbf2f2ad9aa7e1a58a5af50d96c3170c9abe043cd2f9096553e881b037d937aa1b1ee6aa24abb7ee86c0cf2595e063144dfde59ca9c9ca663e0520ed3a068dbc6fbd31fc12f61b194536edbf569f0d11677209fc64e922c28b8818df5ade53d0e41bb672bd6b2d3b28c5266b532278edb7925ad1c6ddc3fb2a91f977a7bc57da990fbaedf2341ccbc700d2cfba3d0cb615120d3c328be670af628b6250ae391453d376e42fd2bebaf2a2c3c5
c7bb578c9b3e09785905b18d241f4a95633c587d0aa606d9339103780e31cf469959d9ca5042b9618757b5aa8a898b0c5ba4c2061315c62280babf36070ec65bc44c08d30624aed2dee50e1fa2b22fd7808bbae38ad45d74d131e1c7a3710b3d28285aadc57681f0532b8c3d6494b807438c01a42419f68bb7e65d63c0d38c4386b43d5f8d1057b48543168974f00ed192bc73231152b4a01ecd17b9504dcefbacfe0221f73cee08ffe7e54a0ad490087528ee609b8f39e9b2c3b27422e2671014cb8ec15770622fa661240945010037af5105934934f85b620b60c34708301f146b3581fa3b5fb3770435459587ec169c4353cb4ec4b088ca007489824300cf
80dcc7ceb7aab007847dd01d1e016cc05214bb710615cf29726929489b7ae8afaa5550e8683e4d7752828d4455b3f8b6cc80688da10149f7c262bf09430e79cfc36a6d881f65e714f40851b4ab05a93aba7ca0a26ee1e112362ae99d168f7a7ec4d455aa12e68913f18b58fb13279be040ec0bd8aecad772132c0aa792977bd674e21a47921b4a7262023fb2b26b788abbca9534f00d9d34b3103e5aa90583c96b078b6f7367350cda18f353c4c497de737be40cffaffa2c7e374a9be8bff7b342f542ba4fe8eee5d598973d154f9a2d0f772714ed0ad2a9ba8d7479ed40c8bae3eb8d20e162fd331dc921df98509b2ecf0b88306c3bad7dbf9a09fcf1b7e957
1abb14f32616eae3dd52996ba69e996fb26256da6aed12ac39e901e984f5b099623f21cdc475341db842f8ddb1de93bcff1ec50fed87df356ce7425e074bede9efa8bb9b16f253f1a63245cd4d0e8bad97e74dcdafd89c7ad524fad3a2acecf03b6fc8d9123fd6a6f7fdf6d4c1f64d741c3e0386494ce9043b1dd42511c380e189fe72193ddc710e4813500d483932f6359e4c0413a4ba5c326a5695fd46875b0a829cb210392a704ef618f92d606362363a9e7973d9bcac7b3da9450578db4d2553a73078553eb7b28c3cf88ad523bc0144458fcf9a196c37cf2df5fb0581566c576c8c9b21fce840752220f06b70830369d22a0d968e9a091876bfc19461dc
e2721b348f84b6ff10527d5f472127988423330cdd19892975671d54df6d2d432a2dca4a31d30f0f1a4172069da65edea6a2f3589ec4584c005646c54224c4ab934b01b901aa86cb97d1cf138c1d0299271b8498a1428a274163ebd7dbea3d8d8ec4f03047f1123fc270b7bdb1be03e95b878c23224537812a55b1d76e2b48e2165d34577a644d3b917b5a8e3bf4d1f0fc385195fbc58ba445e6f6eea7ff1e172776f9852a8a3bcc5f04d9bb4ce565e811cb9598b80ad4f1c2e421fef5d8765e8c3a617310315c379e4697cee84597aa5c6703d59e8c3263ad6f3ca576bf874dac1137e2c324ba1586b42f6fb0c34bc0dbbc00963ebe6d11daf9e71e93b3b89c
b189fb35f5d819b5b60152638efd598e87aa1791bf955ac309381eeca526dc850b577693bccec554e6f8b7afec6052dc563b90c82388a8acf751fc6394e45a37f05becab74dc828179679a812e65f1b67174861990876be53adb77560630c715fa14e5ea95a2cbb5dc8bfde9076e68d85e35db925aad2e4afdf05de80a391218d7e8dbd206f132c758532ed6a41a7e971ba84daf46c8a1bd4a61d113c2a2779ef32dc02fa643d3cf56cff610f5f41bccef9179dc6b921c7317561794adb6f935c4da69af172783cca553c26f4ea6a1c14c3d1f633662b5fe0d126254734b0a04085c3f0a235cc3f3d2800d700087a47554d78fe55f18988f4a6cf653b6354bce
fc8a0f2f7e314296417c344a8e1ee717eeeea6955fb38995ef1940035b2c45770600e4448f39c26d9f0308c9deee7e27661a88eaf6678bd38a8a90d11f241e7963c6ea87baaba790487b65994e01202b5220a02fc73c5b788fab35d2504ecaed9fc7884722e5d7959251a436cb96b093b0732bcff0ab6c99a547d72dbfa25e5838436eeee617834b52120623fc4eec016352e131aa21fe3e4238ca34688de89ba4468f2beac42eae5e4550a9c5b8e72892e56345b6f563d11f5167d58319f8ae8204385fb96030e91af65699820a340ce5cf4e8abafa9338a1aafe9c61498504091ef1b823ada7e6c8ac49396cbc7d56ad37cfb79f8a6e69b662af4fdf2f6b73
1eb7546d314ef59fcc48e1527b5613aad0dd9e665ec422cb076ed0484e6b44e7e2fca558f2031433249324593809c748c88c68ea435e0f381525a394be0ed84385a45b689d1900cc37b376530b88dba95e877932bba86902cbf753292583419259c8a892781d907ef551d703a49d9467c4d9941b07b575072183d6dd2faefb573f7422507af9afccd2b37e6981c83d7804c54bb6273fb03e86e7cedecdd13835f305dbae2ba1398a5c794b57ec5b9a8f7b0575218383652ab0eb82d354f203671f8b779cd0c8f3dabfca96415becec2b5dd85c8c4f138ec3a8de5cd92d43c1cead88841ee9b2c4b01f5bc93d9fdfa62c043dce49a3e625d3ed72582169173bda
eed268babd082f30abe2f4eaa414709a61d3ba1873691fc8095a79414b46e14e47973a5d6275831bb76240511719dcc838cc0831c230d0200fbde95af7184586af877e9adde4025c641f7b0d3bfb37ffd5863348de8e4e9b69665653931c842c9608b20be0d8ba2ebe61263f65013640f34e47b737e509144b6c6f7c653dc70f9bc707b98ff3c01d5a2c1b4f80d09feccd9a5e5388807064e4b079db5902dc47a4a075fdca13342ed68429760d933a964a9ce3ec3bba8eec68fc7863dae1ed16d66ec4c21e89de13cee47d603ba03410cf2b69812016ecc0ca81e689d1f77d9485f974b62fa09d7a2594bd2a102a959a30841fdfe9bdf101b97100c5a6cb6d70
93c895939f1b44de483df023cd6ded70f9572a316b27b442e32b82b0ae939fa3a3a487bbe4659e3d29541521e9b5b3fbfe6bd8c56c9f96fefadb660e651dbc51272fc28452eace70a6e4e2abd0838939a8d77bc63dfa764dee901fbe9c873ac8a413a88c4d5fa6d618870c91d9fe3fd6c0f3b9f49ec4729a033db230f09658aaf0d0896423f073525860bae6ccdf0f21f34819fc7e8b91478c37df8c33c6552ea9452e4870e15d3e214e684aa3de21667190054432eaf24b75aab7ace574e0fe740bbd5f7a432812b208b84380807cfd5f95cc8051f2c3b62cb8d1e30064cf73c913fffff1c1a1829a47a93eb5c8ee31cfabd6bbe0f8d660f0db10d15464c19a
c3f2a35e99869902adcffcb1310f618d47e2c1fdfdf11dc39b3ec2cde6ce46e88067879432e65329ad1469528049b8f1b716851f42013b779e6e294a3cde0c13f05d1bf04c45ab041ded593e777566dd3ca60f7aaa84cefbb65420f6b5d354f8682c8abb47336d05fb8b12bea97e0ad3ecc77ba331255678c41bcffc1d9bfeba64c73309bd12b87d8fbe1e58cfa53faa6e17a5e97c3450d8ce65d6ed8c90d774459e24f506ae05bc7dc306edfdef5fcf05cf8b71734159b07a2143107776945fa617788e24ea3be2338fb5ba4305c5154bc773a592862a9ec04d4c97d0373f77b239d322cd369773465a637a9d163fd4bc1bcf6708800ae485c46093723b290d
317bda728fe022b81e83fde902833798263a912868562458b03775f9614107f687a5e81d1e2d7b38aa831781db3b70ea842176575543a00eaee70f2f23536146959297dc5b9f8a6661086a9d9e8b7638f2dd087b4591c892b315222e4bec5f73daf3ccc529a1fe686e6dad4ed4c6ac4ef7258c87d7cdba7a3a01e501c2eeab0862c2d50cc13a8945f2c45b61878c342bd015b1635e5687b70bf728d77a800509fe845ff684d574c596cb18f200d7a0204187a20ee40ccce3a9e9c92e5a87a09637dce4057c8db86f9e3909269b79276a1ff621ef6f4271dd12f1ae46598fdfb4451495fe5c9f6a1875234e1b9befeef1ec68b054a2ca4d00a65cd0d9158221b1
22e606a7a75618ba90dbe050e4280ebb70eefa3dd03d8a7e9ad465f1616e7789aeb804d04b2c13bee393bc4e9790697e18536f1438e42945e08d19ae6f536b894d0a77de3dadbbd501f62f55d18f1c155ba8f30d91529cf7646bb72543a43434caaa807082e5272c4ee3eb6e7ceb92a0ca584976ac9243a283dfdbe2195eeb99022ee336786ddde8203c4602b89ee9a7a2d7c459afbf2bbb4170f8632b3dbf576c45b658b03d398f1904864aa7b9734afa5da96945df0d643763a7dccf6e31d1d7b306d963b9e6369db425775fcdd4cc5576abde7bd2d2756732ac442051349cff5c8e6dbac203f2b751dc8eb5effa8928090705f5ea5b5b84e9e34b297dcb2d
e685ff1dfb0506b8b323e6ce5c8cfbac37fcd21408f84c23ce8fa00be276cadae6f6ec1416c62a4f5f838aa1fb5c0c16b6ebf70f2749ff3319c20dd85a1fb895770054887dbee272eaecfcc0fcf6276e05489ebcb7eb0a234afe9127fb369850583acb2db8e9c7325b6147b1d9683c6b1a247b892d9df8b575376c87ea11766c6d76df693b4f4a6484f104b9435fe992ac951c9477d01b22ce6e0a1e959af8129cd9b86fd024fdceaadf8b9896128f36bfdd76e6bbc0db232a5dcef5a6d4262a1582bcad4fcd53507eef82167cbaff61837351dcbf4f110c2cc7bf2ea9fb9cc5c203c860b3391ab9f019dfd182128b8bd600e66250a90156cb18c3d85679575b
b323371f23015d27fbb06c062511975997eef967d55f7a81c3ac9df569941a8c028df2ef24828eb13957be1a90643e28973b24d016feb9c9b67b9458437ad1747b7453d79f944e7c2a1d4225398c51f929e8c39d416cbd88414e8bbf69ac8320422b74574a36ec2497c28b2d1f1b3c993f99d3e35a3f85ea69e477a8b2aebbe5fa9550636ddc0d8e30559652872ad2832353c0cab8dcea96c3a112feb8c50850d8804f02ee11aa3a3fccf4593a2963d1d0fa86483a3026a9d30e4d75d7ee29107a613216e080d5e1c98daed7363a43a78d601f59aff080020c8bd49185fdcc2277f46616db832bba902f801daa90800c4fdfbbf642bf143f1d399deab89bf0f0
664c93ed315eec39bebcf6a16425464a03ebfc342699151f18186bde39013f0f9acf51f91439da36b9b6f43d0f7399742bc1c4ee9ca5027cf727d64e2339590622215c30d28385fcaa1b03c0e58446619ab211f7ad81f8b37b28c8d8389fcd0d332c6f8cb3cf20d776cbac6d6352d97ab1e77a8585c9aed0bab71741fc5825a539c20fbe5fb54ec93109cb7806a9d7ea22101a773b572196565d2b11b7d04395fe254c43e20c064ee479635c9661ee7a716af943d5d70945dc586e5ad52037ff6db05baf0377cb33e1cfa5ccebb972cfc9b43e83e4ca6908ce04e781b19afddbf809bf23a8e4312b29a875bd318fec33feebe483554acc1c486942cb9c358da9
f3fe78623e5e20e7bd96a5f302f1277c8fd1059fa5504f9f6d521dfb7b8e28613303eb070ff70f048d7daafe1a972a1136b2245f71b057fb3910b0e918d612c77985537a5e76efedbae6782776a008a93694534a74ad19b4f38193624697cc686a37e658fe745b03bb74798cba5244bd0e43e1f5745063fc9d728bca294fcaa1a2bfe96e21fdb025cc94817c244f4754e212e3fa7749d1bfbe680e3bd164b2e35858b251722c48d18a861f48850cca91abece21a08b0998324c95d55c9d8d082d23b7ef53d29233180246e6a6c3d28ccda0bc0e2e910858d1f054bdb6fe0cc0453a84c366c75bab427eee597a6a8ec276eec0df52486f42cd6eebde90c0a63ad
4752b162b92fda86faa5de1af80706dbf499a88a624aa089c2b28b8e3318d690fc2180ad2d1dbef019d142934e12b7a644f6f26186cfd8d75578d473f072fff1ffcebca19abfba83c49f562f98a6cc0fab72b93aff47cccde9713a5d68c13ea82d388712e680183c655cdab36b222d606459eb66f9886255fcc83b9da4d652dedb4bc45e5141186f4d28aedad5174edce7710c288eefd2e4a1ec308872684520886687dbeb546030ff4856ebac1b583aa34e4f48e4c6e6db5b9f02e08d9b6d1bfbea44e7b2590cd7d242d6edb1ecb947d58462b7eeb8aa123b1b174360cd9b0ff0e183b3742a005116602160ee844e8c1fda5038ad2e2631f3fd02e26e7146ba
e884ea55ebccfb8d06595346f9c8ad6469dd9c2763166d11ddb91936e800b9481a1e7892c53b6c5e85bbf0b653122bf5481b0b27247778bff9d93c995aae28e102585097e029830743e80487980fa73800cb194396d38c7aff0290c3a0a4675b0980d6b5978d1d4e32376c0b72c12e5929983774fba073dfe49fe0d0a2fcd8f9c7a2be293b374270b59d65d007b8d09b17e0ef6a17e0b73e326f4b574d76327a464777ed08ca47b5bff5acac84b5552cbccf0d290f0aba7ecc844e2a28e52254901cb1610ccd9d6ee2653d0ac6d3e4b3e7c4dc821bf518ff91f783c4bfbafc245f759c3d33f5d969ae540483130d87beef46c7fd1657979eac547aed1095d0aa
a64e3b7c1797e3d5aa7144048e3d767d2fd29818d6c6df6791c1e0ba171ceecdd2b02f0dffbe8d7122ed973a935258a4b59d20982485319c38a6f4f2d23843de13e72d522173676319de32b5fd7dd3944312608777ad5a81ba1460e8bf752afcdf545682bd8f308ee28a2ed6121ad387d6ecee6305da32f143f6da1a91832f7e755d5e9b4bae5dc48222ec147d92b0f1552c242d5b961029339d39fe602f562163e5ba747ea603620bcde732c26642e0df4a8b577659b829c85e4e7b76d8d2e7ea5198daee36efe438c01af5985132fc48a0cc99dbbdf5a7c9b140fb95ef4f491615bf606aa0db78d763b6edd58c84c4762c193de70e0280d4426b5c41d13764
715282367422bf019109eabd76c0a25a53520cfb58fcf0793ffee3581b691cf1a615b17d8e17428632ec2410d5cb74742eb9fee381eb69d9bfc078bb3e96c6797d6b87e104dac33b6200b4793cba7aaf1e15d4edde5d17d556a4d7286fed64f7a15fd1db442f113636c1418fcf9dc3157b97235348981e0bf0c9687b9ce31496f15dddb387a9c42d99cb217ef0109654538a5918eafe1c070b102073bce3bb2f51901cef4b356821edba1c88786fe1ea930aadc1c99959b6ce42034729163a2fc54dc0feae38dc97a0fd7d75de6fd1c3ee684dddd592c0f92f55d2f32d44589b10d3c5aa493f932f93e0bfa1d3c269a761a9080522fe3bebba984a912c5203dd
deb9fb1499a8eb754869846512d34aceae67a995ebed7173af97c61d891ebd533e9d826f48b9d5e27b6513aa35f4b4384159d5028a2f76cb2c0fa0890c0bd0725badbbd65cfd315b884166cbf3a52e5176b07dfe4cf1af7e94cd2036d2b7948fd02a5dc3c3e2208e644cfe6a4bf423e1cc7054c9bad0dc1b2e798c76fdba4ea6676d7d96c6adeccb9d62178006aa2a839f6e5ae77921582ea058f77aaf3436dba1bf61d4f11a1bf96cfb4c4cb0f9ce04a36b4eda96ec9895eb7ac0e4ea3fed1ad6fa0d6566ae9c62f5f7034e63ce5fe7d5fa5ff59241e5fc8e5daf15b4aeca393981904aa858dabca0fdf531533dec42b67acb1592cfa975b2170aa051e3951d
9e03c2142a871509da224256ddd42eb9b7266d54369a9f2bac8d2d9fed0db232b51e2b6249e343bb533f3eeb0492a8b27c0517a6837bbcfee19dbc02b7bae19d652d8f6b31f5f10a0582da9c52f85235dc84085c09d0bdbda41156f0fbe94b2f2429d1c2fade64791f9712fe7b9e6e06739535e310076b87ec6830e25f0e0278c2b2ce8bc084653ca38dffd798000a55842d09739d812e981da396f03daa54ced83ffb14c98f5619cbf92b3f702b5964bc6dbef82bf787dc119be7421d9bfbeba62e9f7c8f6ef1b877e996419594b243df269e26e143e14771a019e77b0c34c8eb143bbd4fa0b7b945d21b20c45b18ca7de0d850226584fd9289ea6af8eeaa1f
f9ff3b299b8f64722134614ddb55bdf9ee15b959cb0ce407ae48ef8de5052cfd5fc3a643e33d97cf1f577789367e74a1e216f993e997f8b190a38ee5fd40c457d63d5e54acb3418f7dd8cdba2cfe74f5dfb59437f6abd07ab7dbf19b93fb59002c5f13693dd230359a75db2905526514f57adf1cda3203b5bb773ed388d343659207e8d656d1f932a128074d0c7a04b1aafc88dd10e633d18697c1920014eb5d86963779622652d0198e6fca9955a67654194aeb48cd218b99f16a5d18a254a32f443b113a2ae5707298ec868c9116fea1dfea050889ffca2df36878489ec97c68e88dc153c30947de8e6c084b5850d3d8f9507c4792e4b506f34d734329d8be
d29a9f090631da6e37f7227b6b779af2f240bd6726d9a60b114d5f65ee2db9ad4ef8cd560e7a026ac4191e39ddde81e28ac071093359991ffba793b33260aa8e862877f2b89ee92dc07df25cb75412a39354c22987489651b068d7af4b5f7da7d15452ce95443e50a499529510119325a8e5d02b60bba803f63a52237cb5043f2a6d9bbfbd23b924f5c75d795c9804c2dc094f4391edca740bcdab8297e4f77e809b321938798b9369154e54e2f95eaff79bdc91f61148d93c15ce34826ec67ea43d4c146d0c6453e1aa7ed497cd67821b99bea5ca8f3c0583e0972cd7a186ca406b8560d236fb2165a23e634336181b025eb76ee918ddac3207dc7cc6ead311
e08715232b6cb821f2d09e48666b04691c0473adad4250ce6ca3e22d3e8364792dba108262bb704f34661f44d2b1ead433bef0645933a5d3cc2607020f9b79a40579aa435fd3361e0566cd6abffed144ff2655e0aaff0a3e69fb6f4b599e7c4722b3fae22ad8656cc74fd94f74be4b8706d81f69f05b55424c2b77fd87524529e377c5d8950a56623382dad6336fcb655611de5519576622a00d8fc9d721d25ada0b365992914def56bb8a47cf8c19aaf078b146055d707c18312d80a1559ffe0e9b47b0c911ea2693ba3da12c3bed922415d10dc63715c18b4c9a27f4847182588db926a4305b4cae5295e028e50b4f4df7d44a94ec3cbda4e9747279489544
34beb69b2e151b8a5c1dcf4de84fbe26502b52548db53fde571eab2016369cceffcb5dfcece609f8c116d2717de398aa5fbc7cfd7ee04278e700aaa7b73f77c71615ade4c30359ed408c52aa80acbe1cb30caf5791e2704f3edcdff1196bf3033850dc3d1a06a82ecec34e9057c18d90b04ea2ed49f0951ede7240c465a153cfeef559cf23839bccc833c29f665e60ba4cff94526ab9a96e5ccbd196e815f413c523a93430cb1a716f518abe3b6ea56b2936d239418860d9a75d7cd60a0f78d981be45fcab3815212bdb3caf8e32c8ce336ba0769526acf45f6712e2853ef86074e356bd24865eede09d3e0b8652f958cf51a2b99ab264eda2658f9f7c51b199
7e3baa7608478eae8ee5be753a9ae4fe843eba0a79e2c6d2fdabdb0c182988653914c3003f91bca61d7d9c96e923fe91e2cb9da75512f06b10ba82b7a8c3c7161ffeaa645e298b2c19f1fe674a309f333b3a6d25cf50b26b2d528f1a63b5aa081283d475672b0ed96a04b50c7671a710f4e615c85be1efb7064876ca0d1e8a6372fbf39c12b7cbe9a5b66a25c5fa13bda677972ea44595825aa35077362c664f248ae1ca71052af105ff924d13c53f2594e0d36c6ed9ad059966e4c5d25938ab24b78446d41af4a9e91f369644eed0d9c4178f17eee79792966b871130ac203fd6b0e9384958ff7b8f0fc4bb67ee60f5ee5af9ca9426ff0ced2cf01ac1eb2aa3
fc01c4124074bbf5386ed50e2fb4b8fd69b1fe0b52d85b607163050788e41c0b394192a0263b2aaabaf1410d962dc9780753a7e771dc4c0a578fb5ede005d33f8d9321182073c9e4e04cea9140d081e8702497ee71efbd0f2b2ca937c04b35cba22e9525402755d0b3f9f76f513bdbcd93c44c43d3f47aea067d69fb3a478256f33c87606ed8a12cce0ddf4a3879f8537d23b599cb959c923a4db80506fe2a66f630054bafe62d0317c0f307bd1965929cf41a47a6d08a17aebb4dd54a49e792fd085866e967f8daea5fbba92753b1a557633670246f0cf36714dcfc9bc9e8d7fc75d3f5c467d0689b3256784fc7ce20aaa390ddc1f5cf7360c6392133c17649
8d583f1b1139751756e812c75e451dea7e3f39ad1fa8102901680fed9bc256aa9735bc02f0a32a1b24e3185eae14931540ed2107e324ccdc34beb8dd0305bbb7bb35276ca623cb6fc36031d4f5008f695edf189e8d60c557d905a6f625e7d70d82edfb2cd13369854bc55722705010ed188608b5e4bb5d001acb886eb0d6e25513209fa48844cf2c9fc52b0b0321885348cfab25323c117ee335f7663751801b4acef035a72729df971d5bc4e7a7c096e0b2f8e4a4ab0411afb3ecdeaa25147d865b6ae11460695ad5c39c3085adc3d51998a06c76f805a2446cc03d6a056580bf510e98955ba6a3d1cffe171973bd8f4a8b01100a4003fcca6ed442cb032697
29fa7c7c150f0e08a0acea2ebcf0eaa0bb425ec37c1a02ab5f18944763eebfbe17baaf3c491152c84b18d6abd05e17d75ac085bb24b2a109c21d53a61027c19b0d0e0369d94c4792b3903d819817bfc05a53776caa63f29862dbf27e1d4969a19923b88d1e43ae6e2408e1c7403ca33c288d2d2bf56040a3309176d4eef03851b18c889bd1c721e584ee188b13e384a8588a4d4adf2451ce20a52d2cebe856235f65e23f9e7a67b4d74fc7b1f60b3a859e627ee415196f9d362f82781e982c29ad7874907d61d3b2996f871b8ac2216b48df2463d7c0b2181009c62c494685304fd2dad3fca986a0609025410b3eeeeeaa296105a3d2dd23913f053d1618d0aa
cd7d403dcb4fed600d985f9240f80a42f527d933b846a3631d636981c35a642d1d6d0a028ee1ed965c6d613399df369a2e17ddb0bc76da235d0bdafc620a2c8ccbb98cf3fcc71531bc7117356b5a9651fbe300c296fcb07984a5bf17ebc9817d2d734e0e321313b558527c4d8a439a5f9e7ab873cd68fcc370c8e336b29687e2d6678828fdda6a3cca3e08248ec8dc95f07c2d1370ce1d919ea872a5b9491442c815b3f83ca2f54f6f3a2ec74564f781a265a088b5fb4997aea6645cc64f8be674196b41770723ef198566430c4fb7096f18fe7b91165cfdeca79f6a713d1361cd2c489b6d4c23535b86048e5f1afcf343cf66f3687e583ffc58c4d9edefc4dc
08512dc9b9c9322777efe92e583f3369ac1474d6290a55e56421bd4e9d42295b07d79b4ad71e445e95073e8c9122ba45c4efcd5fbf8490a3903279e44863b59972ecd0c18a961d55712dae1dcac7a1a55910f8f5fae28f69abf329c8441e6799f5e28c41904870a609f51e8918c674a4ae49b25190d244ec1ffcc09a632ecc81019439e7582bc34771885c6bc8c5ab2da03bcb16c26ec05f61c880ec9f1f41fae5dd86019b938ad19624e6d9e168bc2db249f59ed673dd43b01e1aa0268526cd3a971711762f2d3bd066fde09dddca25cd0d16d8b182640ff76ad061e651185c5b89be7b48a1aa4043a39a91c6184f0df5c213ee326b3f39eb808f86d3d8b23b
136b4040a174ab1c07a3b431e38700e18ea8cbcb11ce2966d2f93c0dbbea8c4dadb60493a3f8b22e617e14d6ecf18b0b2f0cabd5ac9c4f836e72655e2c1ca5d11c87e7a1b5ba012d6c59ad77bcee84aba5cd40132343253fff7d40e77d65c58924cd7703c9b4226a3b6ebba4ca8485f0b9c4b4fbebae3c25cef30bb4ff34640be07da1f74b94ccfa2f87a957997e081a501ec50fa568943a3a47b744931e6c43d7f7c36d9e18271fb00bffcf33199e2503d70803067b75c4365f14418c96cb63e42ce90bfd8c8d27bc441ee4ab983e528001201237e64f1677724e5292ed985ca58572ec6917383011c3769856986d71dce0e876828e24ec9d1267b5c9b448e6
f55ad37295f6e90c10730b755a5a5e00e5378a19f836b500dcc58f4a5ee2876eaa7bb1f600fe03b7c62675f6ed5cf094155c463f1737d725b01493fec9da5dd7493aaa0f688c53861726df53f7643c252c701352fcdcadc29f04671790d5cb84df9e447e5f2d55b38a6fb97a1993b05f56363c6a9db04dea98793a461b0b84a94cf1e9527ca7de36ae0106a8897dc3927ded2914aae9d3e76cba22725635a04d33e587bc45edf7f40e0bfad9d62a1f4ecd837626fb509ce688ba208444c76a629813308c8df58455add1e3961eee61a9141c8f52763f359c36cb72953d69c8eb0548f35a9c793a2efdcc82d4185764d40cfa441aafeb2985315c387eb9b8c157
87ce13212b2421dc902b852fafd2086e46b3e7c22816ba74d6d0b817f4afa77c6e4d29888ff6534d903725de1f7018b7c71a7cfeaf29a7f7bdf8c556bdae95958170e5dff71b204345589535423cc65624c15142d4e39d39674d419acd88714f912f168137eb589c95082157871a99d86107e8a16cfc42ab77dc3f10ef098beb869e1284af7a6921c7ab5d29b74b1e64956d17666ebef15e07a8844dce5f8a45dbb2ae8b71f406cd6924d51b07ad70db9f113d0656a1f42c7ed98ee11af081334cd1cbb1b5c124f32d49cff316760783f8c10026f612a95c51d3126fc7ae60113685448dd077a5002d7ada2b17bcce257b9a88618e80eadf470de30abd6ad51d
8073714c000a9dafaad63230958b1b7452bd6c1c0a193a0384b701a90c5cdd8659178de486014ab6288d9f517e720aef3bbc99012e8afc9e70cd54f6ddebcd8a338f4d0ca7f6c3011d81ec3dfc75aa2ba9bc8ef03c41488e41428122c4dff64bdc88aedf666f842c40f959c352cf93ae6ef1b7f198cc5d41c986964c4d8261658fdaff714f2822b07d4238a96b13d4a7b2113a0b29c32f0f6352d2d03597676c85b44ffd3bd70256d04fd2126cf8470fc11c33d65a246695ac86f48f06e12bc00cac6b439cf1fd1ff92e907dd4be27a4a4aa216b4fc4cfc7e1ae6bde5ab2e73bcaa9b5bb993e3402fe2ddabef2bc359ed203bffb885855de89c8955d863e210a
f066febf93819ebced616e1cabd3d6a643ec5daadf5e4b9ae8680922ee39ab29ebf43cf8b455114b3e2c1acc48dcb6363068345b07bb10ad8d821edfa8464d3d42510293ee7e5dce0310a34f189d4dbe71e2b6e8b0ee5d342e5c29abfe5cbf99e2e8059171bf4522c5a9ba8af7273ff569cde73978e309956ded3e30b9f522e450013c54385d1e09cd23d23598cadee69bc12ad65ed6560d6cfb0ebcc91ba0468e8ce52579d8a2bb44fc61cc55f5d03d509d35778d91e109a082c9f6190664f46ccb9299486e411e924c1b62eff1f455ea4a3685b2bf1155fde2a1bef1ced8e1fd9bd9ce61ed63cf9b25cd900253e94dfd52366575aa1c303a4025a5509e7a28
11e8f0ffca11a4d7537d7a993dab31904e010a31693e4e0c9bb0cfd5540ed0eaf22d351a975d517604dff79bad9c5639dc6ea744a99ca33f38fefa653128148934e683638cf0e76fdf1a7a447141b4e0bdc4e92eb61537219884e756ffab5bde8a2871f2061e11d81d7803a585d5901bdd72add7f6312999fe9a924e28e7bf84b47c347439f79f811c44c1d7101e3ad0b63dd7adced3a09f17f3a28ebebd50ab33b50e12cd38ff53d4f328ef77f5be78b02a668367513e16f56be69ae225010bc7ee6c3320780615d9364d3f254a8ecd1deffcbf9d0eac209318051e06169408cab4d8ad2564055c3c54d081cd98a6a31c3bed0bce91e0a6ce60917ad939c6e9
98a503c6704cb48c55c19dc465d0e4993493594e2c1581cab732316cb6a20b999271ca644f6c946957aa2be33321040e0552472785e901ffcc3acd6dd862a4175c065ae56df8c735dd045a53d12d46f9c9f46231b1d5dbd31bc3650bb06941566b0f7894186d8d927a364d65c8588c789804e98dcde5e629e2ad5da8f3a0ba1ab2eff347c3e90984caf20140efed415856ab98106d1b6c28e25e54b5f56ef56e2c83f14c20caa4dce55f15be6eb05919402415e1b739e45167203fccf1eb795a4812d48058a2f0957e66a3aed3b4151c7316f996afedc51cbf91dfb70c1de85b32db86f2d91e4f732f4211959438add4883940db466dfe73d9bbe018b7ee8042
4943b071ca6542bd4c2d8694ceb4b9f5e1f24120f1d903e3529693e6f31132559700d60d6c8d28455d30ba826e247efd674acfe2dd3e1f2b574d80efcc8dc6bb8c0b33ab2af4252c54f74c87dd7acc43353f68035c09cbd6d0dad02f6601cc360591066bd6b9ffb96ceaabf2b8bdf62bafe86bd5611e3ba989272993e2a85bbbe71ebb090dd457dfd52a90fff110df17999c6bab123cffe102d826841ff9d1ec4186b8952dede1c5f4f9b627ce8aaa0b553affe18cdebee7b2f9f98b528abe6fbd991a722f6d1a525f8df4ac76f531235f54af9862946ac5e5ada6caf9969eb9b5d2422e37e40d29e647d1bc5d1cf7401f345780009e031c45ce83adac03fca8
6245b00301e6341173b4e3d5eb40804828bd9de0755ffa564bf035dbeeffc11ef732d8cbe87968b38d2635f45e9149c9b71bac3d3562fcd6159a60104c8f95c0143ad6b4ef46228bb6b6a5d7d01b0725886930ef99e89b004009c5752427f0d8499d0e9da60392b0601cbe5288466add4a15a8bc8a369186d446045414993f55ae000fc03f598f209525addd17b326b928fa9a9a0f6e64f3c16be6d6db9825e7e9db6d39de35f5ca6f68376b0c561cb9f0c3920b53fa238cb351b2071643ec3454acba713a2ba503b957a6e8fd6828ba9b3969837dab89444d459d3a20047827ba930e71c7355b4f32d88a5f93279c72bdd18ccdd99add30922a0674dfba28f8
4670462384bd0e001c90b2724a2a18f8c5bd38210ca5efbe3178a903086e1019f9c61583800ed2a77da7c0f3ef3fbf7ccc96f176cc27f55e4a767b5ee3f4ce6927eb350252358bbaf39af91d0ec0072b4e4bb0c1e64e3a1d92c4af02cf3270f9c0706ebac68b6bc3ea2922e9fe31d0dd551c40722cd2057906eb7acd76f92da286867480b76f1e437bedea8ce830d7fc421b3a5a4ac9fad722474d88fdccce13c02ce9be4a9623559e71cde7d19b1e24c3f073e4dae1f46800dc1a3e4c5717efe64032f621b2d260e82a5bdb3df62bec833773da48b69161b7143bd305c8d7eaef4c98ca5ffe9bd0554e0048ba94475b3e9f068f1f20a884369b697d37e9a888
5b987e2c917a60d92c7c46e8f902fdfac342508223254ae67042af0c3f5dec694c22c69bed4f835deb19401870e90ec69dcde5b813075236f59637e9a8168e3448f49d6933fc64f7494a0502eb0d8746dd14d714f0121a583391eed3f3765c3029932249722512e74bda13c7c2bbe3c650ce37c33f75c1bbfd8b27c7bf96d05ee8c7008842520a1391a1f603e20ed461c39eaa30a564e08382807404fd839e1d156ac2e914eef9a578b861fad899923a9195780d41c55ab72bccf053fe71f46f7a559a3e1c166eceae375dc484751d153d837366fae6fc11c1dcc8f5564f5e41c6f5214d08bb36a1ece60f7c000ffd34bce804d09c36cd573f63f09c893b1e77
e84e1c080f9c7a3762f40e60206af74e22bcd81cb900b493d35dfbda072c3a7e6aade7c2c4b44b03341571568a55a60658abc83758a9eb6120a2dd8843dbf5955e19d300b4b2179f56395c8cff29d620953954f3820f5255ae319e54b5e0ac3d780c22a6ed2e1f1fb8e7f9582f702f31811998c7cb3bac6df838b289a933ecebfb9983e80e47c64dea1a1935a584ee2fce36e2b51ed29063c9db5bd16a0dd230e018c35650b524618f9cfefbf752355c05c8272129e5d3f7984c4e48765984f24c922d5cb1d1270dd5cb58fa4f36d19a561a8ef80c838382b0e33e30bd2627841c8a8c193ec0723d47347b94b7c5ff2d6ac5ee0c7ebd49279b4f9514bba1930e
b81fa9ca30993b7236fbf556c00fa42ec45fd7ef531b1060b0142f0ef6f97d53f4716ee8142edb722a507a71f3dc30ddeb53b00c1939d89459d82f028413914233766f881d5bc9c72051980db887dd5a99a43c7c07defc60ed8d08f3336e9da5e955aba87a8be7c70e50173754d1bc7551e3ca6db518758c7a6b34b6ca15958a8a06b1e101510b636ac0de0ac68a50aea5c1ed1471a535bfcd833d481397568fd6e09b2493233c04018deb02aacd49f338ecbb19d42c3a83b6a685ea7a16d5bf3b5bee4cc5db5705eb3b27c73b3ae28f8d5d88febb2bec2a8dcf0834f44c1998759f1725433217c0a22c7e1ffa41ff5fbbd656478df1979140e92b1bb05791c6
6198780d82b50fb73b1b1ab339c8240031ed7ec8c78c3f7db71a831b27e34be5562d6960720dd2f3ab314d038f132d66970cf2ed4e2a4b53647d27336c46109fb3f9acf0080a2a6d35065456ee7593804936c97c16212e0eeca9fe791fac7379201cfcd9acf010701adfc66db566ea398fe305eb70e06e127256fa82914614e410f860dc51634a6f82fedbc5717d5f9bd10a9f733550278365590c2f77647ad8a9a20e248f9de3f928dbd152ff9001ec0f70bb75ded7455d0def060a2696a5aa14a0c5c3df128ba6559bb61a05fa4b5da5cb0365486e50ec98c48f41a7850ea00271ea2375cebaab6c9821cee7823b8dc6b7a47989f07a691f8c38cde437ad47
32f74aa009b7672c40c04f8b56dc5c8d1806eb6252959f3fc3c976a990664bf6843191f62fefc4f34720afe486f6a195892a0ed5395ce94881b38ea5dad04e17cca2a9aba4474b620ae486ca377440e18049ccedcb98a3335318184e435f3badddc1b144d676c0149a9be20931f19f136271225b7443d5873aa0ad3bd987d0156cb1c081c8cbae126f265bef57b534d4a775535e5752a229541004769666483c426bb89b4fb225f36dc6b89d1dfd4fda1ba5671a5f20c5ea5b60f1b832b02b834d3332e6917c684d5dfd4ce4ae3094c3b1d5e2dedea7f897320eb39f5c62c4748676935c9a492b3780781f755a4638f99491b4ea4d350a43f34c4bdbd7f098b5
f77801c652d526495fcfb9645728e99429343d5b464e631f504e04d7520329ac1cba9c63abaa149b334e409df48bd311028bbe5b3b097665d8a026d291578c1eb474f24f8eabb788e54bbc9f0f84d68ee590ef98dc5a2194fb96aa57a3e715f85ada235c81400c2c45e9456f9a08b93b0f1ade728539648238739748ebb511496a47e95a6e4346da1d4a01d546c0e9f633039c3f180dc5c146957ea5704f186d73096870dc0c14e62cd2e65fceb8fa9df626aa2030b1f4fa8861d4123923e1858fa45c8a7519b9aa31e2966063e1b6567e3476f8e1f5848d1e2993830910ce184f813cb765fcde5946a311962bd0a6e23d648036f12ae03f2fa6c1732c3c1028
b472a9affcebe51ca0322be8d5f59a97475fdda6f696a74742f66b397bc5138e56a705f2f4f584054d93920a2f5d5c7e8310d02bcc7d9f0c614308093763a7d007338c0b78b6f760c5ff396ccc7c454de3589df96b5ee304bf740bc56869daf0822dffa42c090da9fd282407b1c7ef1b6a91cfd02ee1f2ce6e20f4bfafd9ce8abb1a97ff155d833f7a02eb64d39a92aa020cde1ed0e295cfc6e14107102a2cb7ed723bf377b79e62583cdd7c3283b2ea2c11d1af156e51511f99c18f441da953a3fe007b266295f3ea27c42bf5cfcaf0464e11a63c29eec24b6281cf572ddc0ed68c4db1a8ce94abfa348f52ca93a156502961c60250332060ce34075c11da6f
c9680e234a46f495084d8208f31cad34b05737e549d3e52096793f8e46e4cf6e7525388369028ab3091b1c1723378c8e3f7013fa98df597c8c845aee76b1541bdb119c78b3bb6a38533a1b07ebebb0c70a8467eaf3158bef1c8dd8eb5d48b7ae72914ef10ab76e36afe57d373ac9c38fa9091d32cbc01e163bfeb6ddcc254ee51e8f1919bea04acf2fc9a72d297ab123ed1bc4d3a47d7b1103e35aca49b9d8bee5b98c80e9eaa4e37a41ad1daef6612856ca371a44f82949a9d60143b40c0ac80ca5317e2ccc6f99e7fdbedd1ed6c5856a508c0a066e831b59842993b8ec9ee5a915b82df4d7050c20532231a2efb0be451603345d35ac6d2b720109829d779e
02d29176ae1242925241135f5a284f1132d3d9f23f4b80ccde20c00ea69bbe2efdd9609a74dd9462e68c1031614ccbd85305d154c8fdcc430af84fb65c3d48b86072c71ac6a06c3dbceaac8bf59432c065253b5621628343871e28da4057149109aea703eb0e3a60a4a84f36f6875b9203f77310667bca7975961a81011ad00b60972a34002cca9d3d766c194d58421c04bdc7f850e37624cf9800e264fa53fe34bc4e1dbf9aa9f1757c9af5732072255f217d053aadd556c9458dba7a6c810b057b230c11b5d99c15baa68f8f1a1da23cc9bddc383c2cd9b5ded407c9e812876a5be66395eb3824086c1368d758023a88798aae47e1137308b92372f5430e26
e72cf16f618e7dfb0293e0f70a90ec83ee07f11cb780e37987248e48f6be1af3a7c1472115a4e3161230e3f35565ca6a73273e8199fecb0fc00f2b3d31fba54ce5b7e1eaf8db1c670cab4da94ca8b33de2fa6e14b2999b5b4fab5262b2fe5f554a530ff7c1683d743a8a03b582a82c11593d578fba93f6c61a5f8d099a491d3514a28bc087d342405aa66989ae2d9acb1ed02b7bd4a3d6373d98df723e94ca9e79e11ee525713a8fbf7d13f4d6acd050a6af212af96331df8e4f0194461f95209bda216f2f6a2c227157443bd1e0e52ca287f4b761c280f4236f3d198c3e305a5650cefec1341a5048a9fa62ee7df52f89c227a47dc6085d4e779835fb11809b
348ee1932d2b64e89d12c8e3b8085425c2954a15c3c5841f88fcbbcdea14d192c6c177ff24a34f5a6b35dd9c94997ecb612f52c416563b99f828c67504dc78fabee0e4f263b68e0af0b240e66a06112a8a8d11e7336c0516a6b3283f609e3342cfebd93bd7b89be58fabdf3f2d046c48ce926a107eff00c5c7b8df4086fdfc673b63f0bba01835c82571418be81ab0dfc9ad2637e8546e8f427cb5b28f7ad7455858baea695d4470860e813b95fd95261c839cf1fa48a883eee752a9029519a4a2fc7ead6e8ca2c78b56826b7822a836d1ed9da8bbba1f8e88923b655d33bba3ad864b04c5a654af26b27b5fb8de5482d2e9b6257c86df7b0fa7f5ab41c53a09
6724344d11da788332295a66ff6167c761dfe2f26322becfbece96875384262d15ca26153d47df4417eb6bcb9827d75c749d62009b5cafd03a4c91dca4e80fab5e9fa0de3b492690d95445604575b51f277c65a76eade9715cc6e609a8020fd89b6141944a359eb51a0e8233019875423efa48a1ee476ddff677df032daf440c8d440ff23a2e01b7e281bb3dca1335ba30f14a8f1ce71c3fa808b5b8f09659f6d02726a251eede7470fb18b228c444a6d235b8af8973863edb0949b39ce001be256c3a760f83735548e012d410ad6199f44415c18a69bc80e216fcb86429b96718376ef3011a352e56916f3d157b9ae2c7551124bf796dd14840c05409c35471
af4a96b44120bcb55faea591070e3f8a0ebbcbca21f70c7a89ad472d5b310236daaa4f951815accf8d13ba603387dca00c9f369587d4a6675232432eb8f43a002927bc7969f30e5c22e92d54a6c35bd45128d3339cd27170034482478eae9576bbbb07f0d4d197931f008e8f7b772a30bed247b167db728cfb335b978bc896edd8809d8857edd3b64be0255e22c69b0f255f8f8a5990e21a5d7e93eead64ad46c9f1b6ae0972b7fa38c5b1c30681901a4ebbe2a2a0971985ae988d0b9516e2ee8b9eef6766b368d4f028a01897557d687caddca3a9ddcd860c3f6e5b23641eb5a278e6f3a03f568d1d82f83e01472bef626d197c7db0ef8de6b3a0075bf1fb68
958a1a60854a30fa4b8a30e36eea05ae2a2fce2548056b31d2587451edb7885e889c748791a731dfec59db95bb1d932608ead839af435f380b03bd2bc1a067098f57102761465516ed5c6db7a6e76d055918534a9082c1bc928d4d3fd02d4784c23b1e68a8c348b8c775668da4d0aca60cc096e97d469555aaee50a99080bf4e35a4983f4144df743484fc7d6cb98993ac1542073cf640c87e4ffecf6dd1b9e86fd5f706fc316c14b1adf89c65b246e64a55e5a50d545accc202dcfd517312ac4d39e8c0a8d4b505f638da16927edaf2f75183000cb210ea8b4d452ca4c2c8db0524347cacf032bc45946c1ef16cdcde5cea896d989c87dfc4144b543459095f
3858300ae717ba3ea3a95377ce4d915965ed81f9b33a36db63772d220367bec69550fee96affd2da1bd349461df3f207be670c07c8b2eceb4f63d0631173708711a7e3d5312add31b37090e532ebd124083d9af957c6996c6c2c133406de93b6efb84143a456874f5c62c65a5a8c770dbe3446b87c70ecb950c1cbd1f7d160b94df63ba1be31a901ec71a7333bbb605632d334dd79f9eebcc5ce00e0fcd1d0175ad7c05eb3330cd620629fcc800af7a039fbc2ccb16207a37ee187dac7c576cfc206cdbf70d12bd66d9a3b2afb5afbeac9f4b3bd7b5de669776f8e42c8e0d08a3cd9a490f79861fb4b62cd97743139f308cd67f7d8884a575b7a1649812e75ec
5be28a91f3f82b0bb8ab7825b0acd17bd37efef93c1cdf256646b139efe7b0846136198cbf0f3486622de35030bdb337df5164846dac059519025213d611ccb6df67846ce15a3f3f802d5372e1ddeeb50147f6a47a0ddcb738e39e3ad118976cae6feb6370f6f2091a6ae610aee16903a3c7e7c2546bba5187e2ec96c417ae6e65d2cc2395207703c029e805c03ff56597e741f2b1fd1cefa92cd3638b5cc59d6b961ca934bbc9e43b04752c21a324a95256f92834b1d3a1b4a52e10f4f903d73fe23316139bebdf854a161d0419dbccb3390f424600a00301ec86d07566b32e2e25a3163a529cd1172c1cb1a4e4e875d3cb07cae7a99dbc74325d98bc37feb3
2c127892d110d2f3c13b9ee0cc99ec03cc10312a65f0ce531157a59881fdc958286ad6461886ca93b64fc3e700acdc6dfa3c7873cd143bb8cd03d987d8fd8d0193d5064716e99668e4f6463027e5c86204867be5334715dccf76b644ac6db9c82a22fc548bd1b86dbb214f1ba3c9624fd94084974f12e998a34bf8b19b8bb7f37826a9227db7ae49c6c024f1d88f75c4242e879021179c0833d0ef545431328b8386408910e33b03c2361e2a71f5b575f50132266081d472618f42f11b86acc2d6cc706a818218118e10d9d697da134eb7ffa2e9bb42036e96c32eb5e626501e3de9ce4d526962714dfbd3ce95958cce9f32ea2151452c2d84ffccdbd693eaf5
ac4a464d75dfbd7dce8978ee9342c6bb87bdfd3fca893fbf608d5035442213fc5c3ae367796e8457623753762e2f63d71e5ede868e25b5d19ce7036c55ba7bd7d083bcf2b5a8eb0ae8d7d8d7db62cab0c2b691baf6cc656f6ac71881f6134840b8e79dcbe49749a51d4065ec18d01162f5f2718cdce7e3d62efcdf20cbf0655e02264ffe07a16c04dbb6951ea21b38609aa2208edbdd023864213b388e3d2276a13d3259a27e8e834584b7805ee70dc6b79207f4240dd65f68128facbc05cc154de9be60ccd5a914c76927b87143f8e6a76779bf67424d66b5c625d4ee9516c40ca792c5e69f769abc0cd98e195d2db167571758531a75129125afa780c7f36c
3fd7c75c30ca71fa029e0f69e6778a5cd373342eb791a5161e772f0acc989af8b21a689ce03474473c561c514cd7d8d9e178a6c6fb0dc7342c6e983fc6dfcc2b63348714ec8bd5f2dca4764165b4cbbedda63de7619f333bb6ce88b28b701d9d8208f1fb858b4414ec2df4bf6d475ceae4be0ec91d63e19516ee1dc70fd98cb6bb9f53d1f559715a0d33ea69048b9af559a044ea272a5a959814eb1d1b9e4b9ca83e8a5d79e018315c97dd4831b55f3c6610426c1c7e6f4d466088682bb3bb4ffa65b216d3300dda0724d0acd37e112bbe6f1c6e4ce24d2c2acd593adf3280aa124c5ca35b212176282abb87dfc3c5ce7dc0bc4dce353e0e7370803dbdf04d93
2eb7d2c2e9c6f2d2b7d9b882406b91351f5393ed370ba6b167aa211ed33c037ec98cf4627e55f94dc8f48ea0227bca32593d1f86e3293a4c07c765b9a7a43e8ce4792ae7301f8ad207666ee62398231b3821288a978c5d5bc7c408eb189ab9cb2fed26c172e5bbdac33be12e23f12a108d577dd449432140c6842d296c17a18d8a9da8d6713bcff1b52128e0d71f3c76043153381812ecc6db33937139c1c80cf8bd99a291351387fe519d7ceef1d817500ecd9993c2cc5d347574909d78c3f70bffb9511549b5d78c3491f2ff853eae484448636276cf8f445ec240a6d8d8904e7731025130bf3dd2af21ae3aaa714ca397924bbbffa51f092e2df491466fd6
363bd94da02f3abfd7dedfa730401bba6e9e7b083fdaa4a54d5f19014ebcba1cf0d7b353482f87a427dab7694439655034a12585a512f7584d5a5b60edafb4c01277c37aa768189061081c85a4c4271213ef9a268f045fd906aaac4caa9c4afa9053fd1d42642c58fca516caf6284461335c615efb4c96fefc05d342a46dadf1ae595500fad82e9918c13d496d8b58cf634026b6594d8337f35f72c08aed75cfc397c152af124da34923cb3137cf0a738cc699646a8e889799c6239e47e566c775565327f2f3863211a9c129c256da06319e8362a6319db47793e39cd46b8a40d38d5de815dbcce11f5da15703074667afd2e067af55131bedbeffb80e380e39
b81791367b6534bdea1cde03725ddf7a2c49e9275b4245f681ec11e4dadbc0f7c173306e36e41f5e4ce01af61aaf79b8d1aa5da6d5c74255305a1bdd7db70246ac322d37b8bbb1656fcad19b8430cb4143e61147f7073f3e975ecb3ff32e0f3cba55dda99082055fd00a3767f371f9869cdbbf3a42d01bd50e8f81fc633082e5e927957cd4c85cdaa0cbd2a0f7d947a07dff921f237ee51c713a5a9b2e972c9aa22c07fa36cb94aa972b2d9a155b109f8b6150045228cdeeaf95079b67172d10d498f9b1843c472f35968bd3c9db10dae436fc718d5030f6a16c1135ae019c75d5c37adf2123e43ca6a7151fa726a3e48f362316cabb9fd3b9e2e25aeabdf2dc
d558f6bbde16def3d78539ca8b1a8bf9223652bdde31b7120eeed48a0f6d54cdbbf61e875d8af74e045670deea6e58f422fd6cf44eae759a94e8614ae1534f022f9d59a5a61f1ef6acf972a4b10119f2f5b570fc5b89bf357518515b22edecf9bc587cff35bc6d49e9eeeb1a0c9b834c2ebd1d312daf2a073355010d92dfcfa9874830008389e2eb1fdf276394782907021e2a6044470c2247af0c37f72c3b18563f17cd67f368f8717aa5113ef4e51b0af058df0664b7c4252be501f380f82b698733050a5bc2da251fd408f26831742b187a97778c8c343af9f61dede6abb7577e5dbc3e82f387d96970f2d40b8cdb9dd9fae05cb3cbf095cebb604ab1bd7a
ec9f285e7d15d9ea2af135df58656dda7c58c3e98ccbefd1f077cca1a20b8e76a322465d8e798fedf940a0935954d5fbb76715a1a4c9df7a151a7c7bd76d25795d0562735c1e01c3feb33d552e34d9598f4b7bddf2a74b4849f9c2e622a2885e88e1dc8c244416ebc16a85c89f009f214cb1dcb7e9d2ee12948ce6b5bf50b04e4e618eb3c22fd60e5793d3a187a69c131386384dfa44d53457c85bc53aceb328548dac7b815ccb1c8577608fea3aa4e28b890914d46aa5ab724f445616eda61890273eec08c011b8bf13e99e1f564b94135b824c21e98472b4f6ed6239c586a435b880244c79a122e08e3d35ffdece10532c4167fdc8504e1cedb2fe7265463c
9fa4821d7d94e16a8c39b701035454bd73333d854aa9c7643a6ec4dc144be359b976d8667ea791b475f5eff69630798b1c13479acd7876c88b0fc7a0be12bd776c87c730583569aa7d97c823ae7bd6b94ebf7839fab44854d7e5ee37c6f5bd6eccc0e9168bef11cc9e588eef5fbf274524d860cb9a681942b6ddaa69737be5a7fbbb502121c1d28747c0f1a8ed3235bfeaf1eec877fd34277a1dec7b674bd56fad700eaea245a67abe345e3a9c4aee9e574716cbf4374b6ecbf04d19f3580f428a9db2d91caa3ca7f1df03ef88b01cac0142ae71dd392a6bcfe22c30a5d1f2eef1c16b74f0dbcde98e07f8e396d8dc3d289905d4a90afb09e1cad79b40978a57
a4e429242257b03a66fb083b0cdfdbb97291234835e370e74ab771101d3f01833ddde530b3a551904fd72bbf0cc05aa984df38381ba485689f494de462df9fe6481e768cf523f4b3812282b95e182d9f7d76d821f271a47634638c9e1a1e9db368fbf997a70cdf421b034891bec664469ce1a30c13b6b5a698b9613bc59327c42cfbbed30c233ee839172d35ac75779a1659aa5407bb52a8bdb247cf5db973872c9ddf83f9fe1824d1c91d90b62394a693b1015a6f8b38fdabd8fd697b50edff3fe8a1ccb679fc30ac47f0d6b998a213edcafe62b4f58bad25d3bbb2d03fe4466dabe1dcc205d1245eaa75e94ff046079eb692741d5c5dd6ef88eb8f11e9fa35
dc811e824a21fbdc734d61c5ea98bc597eb792d07bf10994af75022774996ccf9bd364ddfd9e701ce3d9ce12d749956d37c0e2aeb84c09ebdb7002d18ddeb65c8dcf3750f3830be80c4c3463044dd87686028dd85b7986cb26a731004389063677ce49a44e6653643212852497b7ef8abe9338d823e4efdc018fe0e8150b10e8fe1ab342cb01c5a7221ee67029b872b6a4a0472c910da91f2676d9c388066f4e4e8e06af1107702d9332d159efd0412fa03be6664b19060f9f6d653a41eff5406ebad1e43866c275aef669f49acaebdb3ec4e155225293f3bb553675e5bae743ecf65c95c26176bf04881e4fe9013f8e764eb2ccf920e87e9091cecca5050bd0
5645772d0a9a4eb2e50caf54f48c183da20be5bbd53a878425002e831e6de38451c70d8a0636e2e13c964a31d7af92c6643a42c696cb9ce5d630f4090ebaa33e14e81f3bea06ef6d45f77dd298e34b3955baf595615fb7a7d27db9e4e6cb7deec1d3f799e562fa0f8d8a3eb1b50fc2335f90a5a08f23802e117c59ab441b028e4ecd949e77413c5be59c9d688c8e22d4289bf2dac2c899e4fefa162fceccaa01dfccf8a67cac1668bd2300030e94549d04cd8fb92e285b6fbe236103aaf88b2f86198f102deb199ba02b3128db020341e73b1b3e81524567c4fd837e05ee0559b49f7cea7c011863f5eaa5d2eca38dc80d5185d256e90c2c58338eaa4e84a558
839123e73d1407d4ba44487c92ed79c04d292c431703266af1202d1f304d4634c40deaeb0976b5b94a89aba13737ba7a3a9e57d958dc413e127e54414bc4aff0d457cf7bf8b3c7e2e588d76d56eaa4e7a8ad1d00c98e13c0cf3bc078f2cca33e21c5e94c97540a8e2281aa93fd3610f535234d53e3cf60889d7c3715acc0d4e44e8bba7063e4ea0e171bfc2e13d3fdf86715cc5ca0c71b03170a0850014593b43ae5b31d9e0794950524d04a9c92fac1db960fa18f2ab8d07d05f053306eb7af4748ae98f646c9b9702cd171252781a8b2bdcd686b0f900c48ffd1644f574844a9900751147bda3d11e5b5b97ebf01f9edc4fd4837ddf26a9585dc9f42ef4a37
b7be0922f6071ac812df349fb8ba07d3bcc8cce052c10b10fa7a965792cabb6465e32d2cad95410f9e918c309b8b026d9ed79538bf8a0f8b46a1aa0c67b49af03c212047446b43e4ccf56ce26d6db2d92ea5c8cd8c4b22d4e0aeaf9d748f44545b967b34915a895d7abf0327268233a3b8773a9a342a0d296c6128118b9d941cc4a29b8e880b3b5b8179c8ed216f2ff669b2b6976a3f837e696ca44995506ba2e7f1fad95ebdd01618e93308acbf61013371a6cab4f4b0c48e9da3f62099e669857720a2e713265986c6dd0ea8252d7c0b8fa8d5ca2785bd0d7d277e948bf2c70b116561e3f23aab8b0cd9126c541bb2c0ac7636b099274742eb46e4d7f3c175
2b1f8e9261e5d085a2df5068f1ec494268ab69b893d35901cc0c81df1533e5f8d333d01457fa3054507554b71d5df669a0f11b7154748f5881d9bac091b2adc3ddc96eedb42a36ce88f819c94c0e02cf1e938ab0d0c794883f178510848c8cc430f7dd5f5c033711d1f400be2b69b35e8c868f08f764c36a4993bdf5e0d987a83b8492f8658046483c50356d1e3de672cecc42974660799b1aa800630567b84f9be508538b2ce5d484e9f3e01451b6590f0c56db4c2e3b33a61a627e20cb6401cfe62496d884f2381c7b5b185a753b9fdba28beacc70ee02f294689f2c31aeacc10767d481831ed10ec59a3916e16f17beb71f3bb9d4dde047d61beef27b5785
fcc72cb0007b708ab3f3bd52d45bd95dc35efb7be75cbebda50d9f571b744f0818f4bde9d3b2cc45e4671f95b1c694b32efa3e9920db75eb64482ce461dcb88abc25da913d0ec9f0cf8457d4905ca0ad30c446b90c7a8438baeaa2bd4ed4b05ec7e6baf3b5ebc6155e85836d7d464f37b87c13e5a758f540f54fe3eecf8dfa1189b89e24f10cf1c6cbfc48cf233a60e53fea6967efc6b58f0808a5ba4e7340506839fb20697ef886c59366e6adb9da5619ce6dfa2fe686f140e2fc7042f3a125d6099ea0ea8b8ade2c00d6351fa4f845772a1fa9d4636819e06fdbb2c790a79b1c8b7c01d0c74ab55f1545ff066a479d5cf6596b4467b1fed40c0ae71c2d536c
5c6dec0b450ae09e24e76e93c09980ac8e44cec3cb44d7d0bd926d90f50a9cf4f95f91b50eaf1e435a923cfb1585078ad362601da24f76f232d1dd5cf1f35e13e6d28ea1e3351084beb2d1e3c8894a97093cf7b32b96ea3c8d9c1ba7cd126f2521d47528c6bfbedf23d306e311452a97ff023d112c00d0c6a29608808211f4f975c1fb06d4e8f56eb08069906ecd16d607db2572f85dc035771dbb4e3ca3650f51ef104d8158eb55b87db44e65dba0b6295b10016ffecaf005306a059af45ead7dc101f41683670f0c33e8229d119a72c29fa5b7afa85bd3be05bcddff578fb05dc8b29c1b14d9780dd237e32b19208542494d12af8a105fcdc6021a389e4380
32c0187400237df95a58b8bf943b653c50e4a9b1db8612ef49c077dde4611427d7d3087db41adc215eb43a7559ea7a0f7cdb20d87576a6121111de27ed6a99d5b40b9573cd7523dd7483e8227bdebba4f628ed2a5c81f5bef6708612a8ceca637bbd24a1a574b8f53ab7b2c37e197ce4f74f3dc284e2f2d5597a2d048a62cd14c5bb7a786f4b73693062acdc0241a57bf3a1a88e856d1278ba752e610f4cd98a4c61289343ba62c3f62368e94dad3129ea824db1b80a6725c2fdf3e980b180572d83628a296e815c2c8ce603fb2ae410f59a1524c61369ef4218fea33bc1243b1de436bd5013fd4d1f2584846d2b3c49d97c8f6a782e3673d9cae2a0f99fb57d
3437915c8f2615a36ba1b7abfaff28f0702eb439cb76364ac6573dd485ffbd1496e4d91295afc35c46066aa8db3a61787d1e26d9d74846d0c79a821efc2fcb9b6b118f0d24cf33878c671f3937a3f33c0d1348b17d5a0f207e30820c3e279ccd08094a147a27775d485a59376df9f6befda76338c60b1563f40815ac37783d114903d5fa04edec296d6373da59389f51377b1740eaab55cedfbc415966cffef2e00f4b2ddb24a777b3441ebca44ff26a2c7c3711d299181a0793162895a438c7ef19942e1952b97cf7d704e5e683330ab408061d93dbee143534917e29bc93eac5fdafdcf2b996ccd7157e9685ed38a26146f1a7361d119f87c1a4449aa35e90
bc801c5ab5a41cfb2776e28399dad8b68a730b111af136b2ed621cc3c9c8170058c42cad2e8a1a0bae0e40acc63fb0ab9d4602622bfe66ddb4c1babb09fbf899d6981d837a565037e74bcb10e0e18eb0b78b437713881ce01a2f643d4104115c479c5a9f7e64fb7732b4ff19a20ac87509e7800ce90f3821f354663621284c043c96392e54b7623f6c8b0829d92d943370b8cfc346e069aac52ef2c4d7126d628712fe95abf33c00e19ca0456bd80c4b448bfe5bb3e61ec91bbbb190776894768c742c03410ad401b767dc6b25f593f485253b50bc82b1bfeb53e7c1fd45971f9a1d3fc1d16bc7a5d7ab2f9764600a32b3bd9afdab1fee87bb9409b8fef277a9
cf8b84035bbb159dc0b07a44e32e9f56520dc9e23994ec5f58081043e9609109ee02056253f9b1deaac47ae73d968264d6e1fce73321bf443020c67e0a40dd77bd23e5c54de4507d2042ebbdef887e6f184eeeaa8e404a30cf9909a30f177cf9d152630c0449e4bf0d1512035b6e99d9c29e53f147ae998d9e4a6e86ca1e1cbb65dc9f377e8813ce6b8825c4993c1d8e7d4ce70c79d8aa09c96d7bcac418805104a7d321f5bd40a2c4368d7d1ee3b97a0644f63d513cb71c776dbe39cc96c0c535367edc3cffbc7df151a510fc9213c246e6b0bdc960b337d6b6de87398093d1f7cf579997790e24e5e772b2a185e248794b95e1de44f308500dcdf7190da4d6
c942ce6f3f1621002af8416890fd2e8389b2a9b6173a6f810eaa532eaccde4883434e67d49a40d8c098844fd9e8e0d244140d95e394cd67859bc0c1023ccf55d23bc42195eb4253a591112bfae2a1b29159bfaebbeb9c089ad23e3de58f802851d682b3083a4c3652698e356530df4776cbc83f3c65373fd6c4f63cbc114ebcfc7264fd084bd52d77df690a08ed13c2a5350ca6165627be6a4f9cba821786769ac12a4d8085a5f7669284f8f9fa46aa998b36a4d676b5415b85dd575bc14f685562a71a7b72f98a6a6a0018d5300f82610e424714504f9b4ac0b456a61e8733d279e76ae447e6f4ea30f804aa6a23155681d3e227d31e371866576464422734e
f86f52513aae104d9602e06306cd957b1f6aac02f019d1b46dd3908606b3c8482202657aa3dc78ccb245d7d6c9907ab42034c1042e034d198c125bc8a76feb333d220f1b727d95660abeec81b8f8f6d1c1ae63b8e72b6800535864c6b48249393ff32fd218b905f11bcd16634b5cacd2c5047d6da88f08ae3e29669f1f598e01fa004f270fdabf9a80a5b08a0f8e8d832b43da3128b18e56bc0910463bc155baa0dd7e3bfd7e26ccc2d210059d422399134773994620fc26cff6080ba6d56fe27a431f4b604399a44fb54581bcfc28a62eebdb154ea9e28d6c20edf699bcc05a8c0023756265a7970ca8a4c0c1d2be91dd463734b959d1b5359c7ed32ebb5e71
2b8f80b3347a9d1bc6cd40c8eb887300c0df8d0c6663304d03421c00ea9d5ea2b61934200414111f8ac77bfd3f1484f3d856e704c3bf83c9a9eca25912abfa212776af03d361a0a4c6e85015414d07528f78d55a2846fc94b6f51ddb608372fe41c89fa96a982e064dcacbac15249130932a8827382923d2618aff8d31d793c224358119826142a333e3245eaef8ba37b918c0a634b2f582f1d06a4bcecbc286f10814b64bc80fc59ce49f4802fa6250642c210d8f982395a57e0ab2968f66164dd2785fbda6c2d5395160aa7425803ef8a4fc510d3cb279f96e2e350c585f46c92e6bab821a57cbd37897b89515b5eac6463298251961c29db6cb7b5225d93d
ce5779c9215c5f60ad1b06e06ca358733dd603f87b80d1dd3a737a1b03001355d2f863a6568aedcb0f25d1cf34c71f215118e72f64f225f4ddd3c0ca92fde5fb1783a34de4dcbdfd283d331b7e5ca2a250c96dcf90278eb7f7c9766d6cd56e561eaccbc496ed82c6af13199e1301093c4fb9b8f2183f47f60b19510d466a9ea2de138d648c828979f7a374f24fa02a7b7883c4b008756099aed4652048d8b2e459d1a9b438ca59e07c383ac29daf2196969fa12f435df44651b5e0e7f4c1a631d909b203a1ac8493a55c8cc0d55f12fb8e7eaeaddbbfda7e42a752f94a81399e85ff741b521092672be51cfba98a3446228b2c36dfd0952d0b40331720fc3961
432930e44dd4a941cd7ae70b8fb489f2683cf75dc715f79f7118ae92b714ead85be906386d57413b2afccb9e3da2a2f639a313b396257d417a3464c3b54dabc82c114ff131e197be4e748b3e9bec2ccaa3cb02f38d6e8c13d36cf365a99c0c35fcb376ba25eab98db64dbd9bc3101e8ca646c6cc103e006dac56fff40a39a15eb66d14f56aeaf5fe14c03493c15f0d5ed7fd9a2fc00272cefe9428811c23b46808732f9719971cd701b1c1e6bd70bb7b23e199d8c2906e0c6af91f5432edf56809b60baf751cafde171b1803bea8b8d3de4bed573f38d1badde1b05e5369679c9ad38016778be754275d64213e076b0affa9dfadc53fcf956508840a2eed482f
c6616da8df521b17120a75308100f0330261ebfe748d8879328c4cace5d0ce5ceff612e7ce8d2e7376dd5cc38df4a0384fd6f5abc08bebd10b68fb9897d3356c296af3bacf0d1f6ccb9a778ef31e7aba02d8c7987073631b20f875842ec1c3f74eddde52d74063e258f813a380b8fddac5295ea9fc1fa635168f5bcdda54b09b35c1372b1a28203c258ebe52d9acc400b3b068fed79a1d46a9b3ab1faf9cb9038272beeb2d71b221c3d23a03980609ead8e6f209e5ffae7485aa47364ee9cd7af395f249db76a2251f24cb193304ddee5fa3c8e9caeba05f26fcc490f933ad0d670e05559df72669d2bec32232a597f36684348754d1f1a6a30e856af0bafc22
892465aa31693bb1fce0f0cfd044fbf24ec11a004bff8e1f8cf75b3bf1b764c3892bb9320bce9f6ea577dfb1eb819007a102ccebb437e48e78b3819d0707d2fcc4ac48cce1638bca69caecf9807e0ddefa0fa494c765f89136ef142eb787d3450664ce3f38d64dd0de95c48c0bf833fd6d52801fc5641f462544c2cd01ca564e393621bebdef20127adf5aebe5d1a1a3c664779371300b71a970f3f47e982f23322efe350cc422aa66ba7667ab95f67c40f0b888e6818dce80a1aab30c62f701b54384f9299261873e15959ff820e63f3f6a0467b8b7fe232dbb6a7994398d22e8ec44dc3a2672a974b96d9b4fb0c2fa0a1521b092a547ad4562a9a51062e107
64b95b000baaef54c507634b15941c279bba76e8e45f9212f03ed94bcc9633b7f6a83c976d0cc7c2a142bf08288c068d91f682acb8d02d69eff89d0c8440c01c26dc83abdf8b6b29597e53da905fc49eb6d5c8b8343f73dc96edc792f05a52ffe9ba527204189bd2eb168e363150b7b10fd56655b80c44d3c75f20d85eac9dce2dac3e5658148a700a770a60479198dae29a729f4732b09b94c42dcc45d80580220ac2a3b6a9a3525641698d08658ec8e385e8181be65a8c33b46d61a06eb2b4a7c44c2451c0389286882e5a3e4d35b39f6f41abb297b42a9fec2c1a713e16d1a953fb510ed3d64d9c48d051097ae65be44b10b54bf0f124f180015a84cee0db
9f5bcd3de82bc4e9d33dc12500a05229d16b99ba45fc58b2fcec192480311980899ad752f93260391087749910368d9f19ada3aa1dd5610b35ecda908cbc6fbfefc9e5e67a40b574dabb318ed793165d852ce7e09f01354064306c38ee1602c5a9eb3d81e5e5b9cffb990c430bd31379cdcbf07ba65724f0796b89dccf1655c7878bc1bee056b6f2f4b2720c466c712b4cb4cd3bcc94f8b718b4b0a202af92ef01f63e843c85709175de44a4a883ff8e5e3539843f6ea114beeba2938fa06572149e0249dc51fbbfcf1fb4cb1c7a53a91575b97b79daaf993c9808d2e03a7ccfce784997899d8d07fe092ee9229bfff521f583a7878adea14664dcdfef2406ce
354160a76e52c39e74a98b0cb90c48e616d72d9e82c3dbb0a87630bd4e1fd15942e3394a3d2b02cd5eae434ff283d008d2e5c0d19c6760d78255e6b8d9589f5a221fd3152dee441329d4e462753e0d2c928e29cd925294d19b14621cebe468f2e65f1a03113abee941f90447c93258f1e662ff24ee4d13b0e04843b374fa25a0bfbbc7b16521fad5943a949a47a097c11441cd9d1ffc51b57d4f97a3c86fd5782be0ef28bf9a519e9e70bb3a6bbf2d14eb0402c84ee17e7b0e9569b987f7aa8db66f1e05fa00c4f05fb4578df8f4e72cd29ff9dc6cf35e5e88d121f90bed4f11c805636c4c119fb419c831477d25e6039c61196bfa8d4ffec7be5990591cdc20
4564e29652f88a4b115f1ae005c3f3b861f15f15d25434c6b2fd026c39b0413980cff6fb8b1bfd10e6632b8e83523f19e78a6b03fa6ba80f393ab49a79a44603261f58a6d95cc384b07289193d9545d6a395a74212f2c22d0ea718e4613afeb24ed942055df31813ebb49a24f9b83c7b157bc395cfd7f5f136084e6edcd90704f2b1bf6975f30c213e478c52d4dbe5860754a43651971358864b9acf664803b9aef0d84901f0436ddf29e3be5113aaff7c3a9d6c5ac52b192a76ea57db2fbd90aa3c75466340203c4f5d471869a15708a011578dc5a4eca96a99e750330860d85fd7be5a9d48d9e3b8016e84595845608cfe632e0eb506ed175dfbb349342bf5
acb85ce9e0ac1baf9695b18a965ae87385da60774e6aa9ab58689283360d9091296b31ac0c350faae1639935e9f8b6e17e8cf440cb8efe99016b7e674aeb9a84a5d9ac2a16e3304b1504d9eb036c559307f06c5015db65032d026c4fdb90b6b89088cd49431459bdc6a935e7bd01e82ee8f6c0666b4c88918b615225941323f53f25114277f001389373fb8c8789170387c6ecd28ae503c0862b4bc46df29bffcc9fcfceedc64b57c4362efbb920a5f2c93f6210217009771512158337c28987d8053127820c5380d52b7b61560b8f58fe7b492d2862d89df4bfd1b77dc7173d03569ab0151c4de16517c49d91c6a7c765f93a4f7b79c45caa83d1883c8bc7a0
1995a4c64c593bb506f12574ce0f4bc227116bf71acc205f9d43cb3accee3010d494b73655f0801ef81c7a65038cc678eb44d13e1b923476d1dae708ccaa02e030a1fb33ba38c5c84833a5e9c3835615c0c25317879333d583d12bea089decf8a8fb31805e45ca37729716597b1cf91ba55495f4395994a4b73e5d5d9dddef72b91c7e57ad2d921b9e28a3f07165422136b1a4b2d1e9ec952edca157ce4ef3eae944ac90ab3be535c945f31c82dc3bb79c51cc8aeee692c177c881f3cef3353e245071356796f31b3bc2cb8181eb4cda8913a35ac33574073ae9978c2cd5f8aff9ab05e6cc56ddbef854102e9214df990719d73ba9746ef0dc48b15c0fb9394c
abc4a1749a40b878999bb2dae05c953c524f374e6bcfbeeb03d702622039ea17d16baa154488c63a9200459f0142af6c6439d45c55abec1a4bab663181b5e8944668af0156c824c101636181b0ae996fc396e1ef235e544f1fcd375463f836df7a8702e176912d9666277cfef600c72d2e4aff5ef16bcabf6369cb09aa210bce78b427d7dc426c066f5f650b886fa015423724ec84503bf315fab2e4f98b57348f567b2a6208acfe4ddddc5827f8dc21ac4b15d37604d06525c23368760a9a5681ccec5ff05a699fa980a662ac5bd8d60752edd18d1d133bb3b468979ddb4bade56b83385542a6a41d534761f2e74c86545b0f1401421339c607d0d47b502544
4e1b888ba3429833ecaa59adb6e2d95a86efb0dc5a4bb6f2b55919e2bb55e2cd8b8c959fd0d4a043c9a11c38e143fa17fefa33826413602e069763e499313c6e57119431678e0da17640cd29fd89a24cf077eff5ff3656d75871453415e4f215217e7c814502e890713d79fd654d1c18f65ec32912a7a2fabe18ee2f0a8f31ab8e6de297dd3e8c2f1916334109e54c40787c98e375030b231636aac3e8b796a31c3a4064bba6239db98200c6ac99927ebef80098cadd9a3237433548fa44435d0d762d23e799b8646a5ffbb9977d3e3a9ce24b80816a34a5e23e275c8abfd056cc12dcfe6a8c35278b8be8db5c3cb026d4199589ab0087850fdc2f777ebb1ef2
3fe2e8e45a14269d38302172c40c39347edc47cedb7cb3d5bf4be31b114af45f85038caf07f1a8b1fc9291d4b2692b2a597b5759d74cde134bb40ad88f98c9a05e2354896e6c88021e23c5deee2d95403ad5f461bac24cfba312701561d8d6beacf00a7cb9b1d53d320cbcc7fd9f82b63541d160054bd6e0e7b8601851a98fe89cf79a1575d1ba3acfde44afa3af1f5e29f96c33aa22bc3470cb52519db9aa31c638a045650ddcf5038d15b61e6808c24600d08c79dabce52cdb8ebf81be56cf435782c0c3efd3be94ae2b705f2b0c0f9e4fe14d3071035d6f2de64966a3d41a57b24f3dfc61dde63798e15b89969b7ed0af35f8acef020cf6a8dcc0c0360b93
bc1fa5a4013c7100b646f543f9b7c3546470f5ce741986370a1fada457d6adc98a6d39fc3e4d151f387dd686feebbb1a165c838927336b147d20853f3bd4af442754217aaf8a0bcfb2e435ebaa1735035b684808cf4bd0c315817ca98e20c17521a1bae5ab0af4578e2f6b2fcdc44587ec9ab5c3349ae55d44152200c0a5e19ed37cafb0ecddffb0f56baaafa42231e67923da4f45669f285e632711132bdd950f44cc0c118882264e889988fbf9b8411d9cc825e9515af8648b163799cc61a0f20842a06713959a7135d13856d99384e3e8fd025d53bf3ad6b251cc1259fa9d6d968c4da55220b4a8abad71ba929f65a52493b8b383dc6e58a1edadf95b9407
e01e529bcf139502d632b37ba5a3481e5b3de31bea0b0f5b9a4e17f1038a3c040b1a32bfc81be2fd81f4ebe8878ad607c8e1d24d9f6a8ae88e2b9ca9648bbd61e1feff00360fd95b57ae716830d205f7084f92a9897052d8487277a1812e069fc5d11650319e8458e4ad5aea719f58f591fd1bee0b60813ab106dde9b7070cc7d535178ec64322721675f916287506e5660a09c10839ba9484d82de33662b7ff0a22fd986950177d625bb4761bee455494a8add802015436d4a445d0862c440fff7d659931aa3e1dcc76051f3b6a78750bc139a68eee0f161ef160c82ac33e2a91367403aee67c6995869251475a47eb65bcf1892efeb14883ae2bf081e47368
f61e31e14fcecdfacd45f5461c1fe8fad458b55b2c3ebdb7a2e500a4aaf2b01a79be16c70a861ed5fbaa69a2b42d71040ca50f09849690264a7da3b1c9adb566fbf91e37591996dccf0c821538fac109e197f5ec77113e22d4a9a94eb51ca9f81ff5c6cf425733b782da957055c8bfa23c2a28ea1ef74f0de3c4baf7d19bc4d7678ea157dcfc779fcf43fa84e512030609432eabdf808ee6367420ae860684a6c2d8aac3604b3be86ae3399aed18b099bf4ffeaae82ffb6e7c973cffb8e28c2f7ab9a7db5fdba26771c376498e06de32e426bfe0246ae1b34e091d419c52d161455cdaef2c66e318d9500086449c1465a03fd0420820e80a533e2e8b0cf8f709
198c34d7a22e1944ce682e20c23a69209f8d98bea08589dd61e6f5f480904fc96382df3a898613b254f1aa5053689f4eb33f9f38cc8b1e1f28d404c534961ca1ee6dbc4c4c9525370e9bc75d9ade0df17375bac1bf7193bb1c09c809474990e4d5dfd92dc9708b74b2aef89ec2b61a92a169f6cdc926dbb408ef34b8b55e664a1b110b8c2f19879c259221121eb06eb3b89fc49c85cf9ab5d37c89d9a295acd464a96b77624b2ac8507007b3e963a587e315650608e3010c3b0af0797e76a5caa3a353bb70ef3d98be3b2223c41dafc6f1c6a70aeace6bb119775593eb8dc0d026c7fe1b32cd6944048381c2f3590deb5f995f18e3fe8d30624bbc30701d8958
d677a7b11c099d22a122e1a5e036c5f3fb2c0f80b1e339a9caf3479cdb151c8cefa46ac187940fafa3dbc0465cd94095edf973d03174c7cf0e82d058e95528b3431d76f44fbdda703f3320f95d1101cb22839a11a7862eab74c181e13d08be027cc12591cb4977b2dc6c49fb2f628ad98ba1ac7d835413ca873e979fc5203cfc8df84a51f4511160a825d3783d160ac88620f49073d4eecf5d96643bf431021e374131331a8aaa31bfe667c821e175832fb96f6f4c2d74cab69c80fc582273ae5530d5bc4fbc6fd128f03236c94ddd43010c1d84d3505c1e8ef1b29a7368ea23b3cc005e6e2bacee69bee2693372e079f81a7a8ab419373d8569e2f512400923
2878a470284a7607166e6a6ac6da673e3c3f669156f6dbb3e3db05ac041e0f17e92333e24b512def7ca836018d56062877c270f9fe5a28688687f52ba71429426bbb54e21d7b37f9238dfa7742824641aff3bd72b630e3fae23192342a3f90e61052d7b88636471e8ca585c1f795f80b2224daf7c593dd0f54d0b98d469c6c59d400d9788c38c87ea92a18da12297e57124a1172547da3c81497555e193eec4d69591b59ea114a07a7d42271a4e388f4bd6f39202275c382c80e2a238abb23bf97dd295f51b3e04db095f6a011d016e203f196e955608a33b13b656e254c2c9cb05a7813d75857d2263ea86fa46b24fb90ebc4a60eba02b4a868eb59e8bdbe4d
82aab163b95df0539fe89c209e59d132fe22131074facfb539afc6ece529682c6f62a25b35b58ef071767c3f54db59c61b6b81e71ff1a82de2adcacc7ea08ccd55fcf932f0bdea30d59bce95f114975d303bc4fb10b62671537e51d55df4d51ac1ef306083acaaa0094c6d96661cabca9b1f1a031f8c195fc8b8ffa86ac1867e50b2c64ce7f077d94e4f869cc654f032975b7db05afcd7e44062a9815a74ae7320e70273973303df87ad16c484ab524ae9de3170b4a93a7cbb6887516caa618786b7595d83f27aead90c74174471e48b964fac23ba00f659d9f6c44df22be8085929da0a5f1526e7a3e3ebc283685d56eeaa98667b273eb7c3aea0e70d91ab00
d12a6a4eaa8c106c06e72c91e8428052563fcd2598b8aa3b320b19ca639cd910d5a39c4e14ce640e6bc888a3b1a555d80ed49f206f0e9daf633e24a7d4472641786b6a5c7162ae767985fbfb16c6edb0c975a232747a4a480946df19bcd06407d79aa23790569ebdb314e9c5053e2ab660f129353aa2ae66bf66b40212c23acc6fb73cb04729c22a17aa205bdb21565bd698312fd040816d001e2c0dfb0ef7ba2495711f5f346e72c63a1e09bc5d879e854f1639ddc9679f61306f079a3fb4b2bbd00aa0b65d84ca8fe2f3ed62ec07f3cad3e4f71b0b28f877a516dc41b6a97bfd84e486eb5b641663f32a3c06f76b46d998eab7101fb0f510af4303bb71f57c
803c34d5bcce560f8d59ced033c4612bbdb4cd652f1846303aca201c94fc99525da1599126ea506e93ac366457f8b26c456afcdfc0eae2f903f303b58ad84db95b1991cbe2f49cb6c53a0c54d54987b708a6967361a3de58e7271953982cb1ce525e2442c441c0e95f736f3849e7bb34afa2a5aa13e244097ee256d1e7715be3ec2c14c76bb23756825f3d5ce45b2f04dc5e7ae05f062fe2d4d07c39cf6db9e6f3f1cea5b66ac1e3d87e50ec3cfc49b9771f565033bfa8f1d772c229cc81e328a3aea95919729d51c9339cd689f416aefaa0409b07ee093d1ca5bd600a24b59e59abb7ed89c898a1a518b8e957cb0b125cfa669d23c9c98b03b12a773bd9bfa2
5f263922850aa26de68ca0db894c011e243ff84c6086ac410bfb53c2e7e1be56d69bc9e306f01b0008fb32c900b470d3eb1e9f3299705a1d3c2b377124d1d38ac74bea431a943adeaf3460abdc3f5f1eab034dc28e6517ba7a184f94a1447ef208ef64815a7e2ab74c32d602522a5eddb652611ac11cb40eb0780e5740555f006d5b2ca99a2364062e34b4a924fd3023ab4a2f39973ea16e09ddbe32bb956353acfb136cd19da2ba1f87a50c01e1a649d6174e53c456445081c1f3fb2568a42ec542743ae95a8dfb959bcef4511430e164acfd48910d2c41364989ab7dbbe298112d3ab988123d888a9300af754541f22b6f9acccbae2533fc892c1e952626e5
c60a84a6d90ca653619032181d62d530cdb7428bab9b33951f77c38087087cee193105392535343ca5d59f567584e689164e597e5c64ffd3d4d7c5f36fd973f77db8b4391e00b8d6af1353758c10a8345a1d9e488e4b4012ff4338d25857caee94f12aa397aa93e4658d415d838e7979b4f419185935af3a4a01de814d9c125cb2bcdae87b26c89a41c8a0b9842131ada7ee4c8186e8c672c2e69ba82dbeb95261b8d31aa9ee0b0675c8653175f21cbd9e7e2e5bf287d053671ceee8999f08a51201a03fb49418c40b5094df91b110e1b102a3030dcf8887f51844fc4986d4e724c7ea5140d11ba864d0abaf1332aa2ce72b226a0c9353d60bc64e43726eeab3
63f6fb501433cb0dfd5852e13b9b69bd9237192fd1e54a4986758106771c0d413c9e4c5cabf60af9d5b065d0abca99d66c5425c06c1860a570c3ddf15ad0927c2f440ed32c6c8f4e707a8d16281c521b1a9c699d8f4847adba43480bc5b221b517c0a05f3a83e574623598eb8251554cf91208c7e53cbfde2e6edc61ecc635f0cfbea1c14bc9ce98aa9b2dc8fcdd42f4685b47fa34ea5b641c8269d16ead510fb193bd815a673d253798d1a15d92a5929ce6727a42645fa87951ed26cd65c24a286f963dfbf9b868f5036aeb0adc50ff62852008a3db7e62cdb9720ab145ac3e4881b06940a34c98033382f3b7d938cdffc353cf343592060ec25e95808fc65c
50dc5ca1e0ac8eedc9a8dab2f27e3d77d6edeb72bb4e9dad20f9b09637cc0be4c917aa5af6bd286b3d25fa8af92192836625665827e707b54c493cb41652dea15a4a788f3a36cf2440ba03141b55e64e0b17460f9a8d106931c44720cb117c61c36943f178db5dbde47323cd2764ea91335bfc121c2379032cab32c8c9d7a6dcb74d5b1a4b271e0024f576d6be5193c9de81e2035546f20bd0f1219c42befd062a84d3a2e8ca1b67d74e9aaa43ff2f63ae753d98bb451dafbd9188c07bfb8b34c573390855db0d69a209dc92fe07932b66eb14ebebb22c4b2dcb0ac22fe3ac3436e797eb7e8c96987b0c0e12bd3cf6a60584eaca23617a37bd273260e62418b9
3e344bbc6ecfe328299646ccb2b7fc10606559d2cc76ab22e90620d79f098cbb051d368c10c6050db2741e1f71a01c3dfa0a3c730f5c9ab45d0304d73cb0614467f6ca10bc3400718babf8a4e86656cc032967ae97b8d4037d52c2822b8b63002f02f337b521a0d1a2bb51db5e25ccc44fef83f3e7fd3b48f6829cf8c377b382db5b2029adc90333c3a1af181262d735559dee8de13eb776de91f08b148b94e284c79155a452a81630565ab4821a738b05a19fc2bddf1f755d9122d9bb95cf1169e41d781a159257a359349e4be69db476618c26230b39cd349a90375bde011b4cd164f64809acce2103c9cf65e4d69a8e2cc4dcd431353f00547ab36281e634
3fb70e244bbe566eb71057194f22a5169035cdcec81e57e60ec0fd0bc02ee12aa53da79017a3aafcb21699d389795c957e20dd7cc3706dece7922f56cf993f10111c5b12811d261da18eceac60f41d111c5134a1a290a278de9d13925ad7412bb78c0ec4ebda0401583126eea7ad99474abf98f5c79cb0d71af309c06e8a7efa668b9bfcb49dd4c280975085f8ad1afcf7f4cf04ed4c12d06d9a4379a1ad99e972a7729c855f1f52219908ab169ad8efefa6660845e4dea52b2d1fd69e8d4514fe3715c9d7cc1a4ef85189b34e169e057575afca20922ea681d08898ff6fb394be67d3e7762084c9d4189d3e84fce6c362ac0ba12904865c1682fffa1b897ad3
a8cab2329fd82d068e6e4cdcbdb2e242dcf26b6a2e2a99e91a9f147a4e021b9bf73cb92c47ba7378149fd7d677d41c041efa7e4eb45be085e9b3e2d118fd5088bdd3b14d5878acbd508aa123e9e003e3454aeeb351e2ee23ab96d5ff835020ef4c39eb97c38d3b5bade3a13fcd83c95827e098cf86e5870a39b5da324a14b093e2a914b96103d2c56dc71eb4026246c1c4296f9f2883f3c98c55702aec4470d0ef3d4214f4d2fcf006ff271c04315f9af4cfa278f2194fc0f3229d1445fde69afd3db92fd66d664658a05bb08e669e7ae0cc3e09ff613e2aacac398e64607e52d1fde3723b440c12dc07897e761c1e9b98a6b692391166101f46e923376bbdea
1a0271529bc1f1365096bfb4bf6ff2b13bb4afff43ed6353bd802727448dc1c6c5c07aadd4cfbb1db81886c8fdf512bcabb9bf820b1fa1f2d9f653e1e4d1905103c0cc53b5a337b3bb31479220a779ece200d2ce65cecd52d89f65e8877b680a0c04b9831a3293dc85797c2490176e2f1a7d2e3960ab97b994689c56a65eebe8668d48b9e39f9279798934d1b48f29d6f73eacc4746c73acb36f5fe961c4bd08b3299a69811c29a34026b0b5ec3bde95119c58e91df872fad129a345708de8765467bd5f0d9196cde7c844001620a3d31454a2af92e82ad5c489561434d4fe3b61676a54005a29fa86d12c6eaf97564de0f26fd06a77d9e00ff26728e10a48e1
6d8d93f83a2827f871d18a4d394576f88d8a69ea278548c5af7ad6d823dbce64a628a3f5570746fba06332f93a3d5cede0c3cd6f831f62e05912895be6b29688013cf8abdd0fb386bcbcba78eef1822bee88edd9bd8e39a2481b27ca8817437223b550ae676695d07054febbe201178f5e5af479e5c488d9ad8c4179c1100a858e1f5581e4a74f4b88e48e1532be2ca4ce483c3065451f207339c0638fddf9e33f28d05337a01fc0a552dfd4f164b0436bad058b1745abc20089e3e15ffb9b46d51f87be6f3c7e6efd35a75f3990b8218e20a7f3a1d56c6b5799cd5f5d8e84b136217d2013a8b76f3280620965579ed2fc746868ccf5e1b1ed6b6c236c71ccf5
01609eaefed253e0a37d9f9cf1d8ed048abe4c4cead5963b4e29d07dbfe37dbc9134f24837dfac935b8a8a40b8d3ad9b1edf018baa5209c48fade735eb496973990baaf474c693c342add57a5db7e0a1fb3b5679d57c07c44b22410c03554614d047382268471933810bb17e788e0482da7a3590233cfe974a8fe452ee74d22e03dd3f13e9caffe6fc515997d2c773ef10b9911166ac6088f81bc4bdfefcc538605237f23be01e69c4eea127bb8fa2f526942c2d446590849f2cfe8ae368fab11292a6736a5a2a83bdc5f109686223c0733cbf16c45c3a0c04cfdfc4640463836995f99dd77e5995948a05824797a8e42acf3631f12cf65504b5a3bd1d90d8a1
469cb9628ce841e98ebd4ad7d8ce88b34f56af99eca3fb95780c0118783cd3fa738272f4df19e4564b27fd58af57e4bdcaf22235aed2e39b91861fb7edde54e2621e7041b68f52c41950d7b690548189139a6b704b525c11d7ec7505d6cb44daccfe984733b040e8c12050b9b3b3d2d4d111f425fae89b6140b638253ee12403a5c0c9534448ccc0da742340af688450fa06699c247280fc9722f11c1da94d897b9693aa50066e85e299ee2316df4f09ee302772e0967909ead773863e6f02b34bf7de451ae4a20afca1ea9b07d3820425b1c15b67498fcd63abfd47e7b7f3881749b0e860097951b5c8f64a1530572fb659174ab9f72b5d7067103200bd0198
569c922f3b5910e995bffd863d00923eb4a79385e25b3a56e53aad1acf700293a925be9d9a4968b1c956dec1ed60c101c0699e4460b9a261e99a7aed83f66f6133757c5fcb6cf4a990b8fca8f5c8d44c4f137e1a34c00d80bd54ca80b030a9f1db758fad2ab001317aef415d5929a844e20a5ba0a2ed880a1e2af2261b4dcdc16cecd07a5a16ee0017bd75f4f8f388f3173818d3fad90e3c54c1059953d0f752ad8b1274b5c7d48ada043619bce9282fb2b7cbc0d65366d0cf504bd6134a4193d518f3340e431ed89bc963f37a4974a462cbe8f8fee8b4f2510f7c22d58711e455ac6781f3b9004b3a848db5efbe7b85260a0c98c5f81e69a121dce419f4f1a2
6926305933e61360836cd04a9a095ac92a1936f48bfe8bbdb33ba76feb33c19d78c37653331c4c4429b744e09f3a5b8f3c5aafccc7dd40e6fa7df1e9ca7b70ec2f5dad66f0ef8d4441a164f92fc2f309b9ecb8a740009aa70189c6eabcae8447958a36f1eea559cdea6495a33649464fe67a037b000b13449871ec69aa1cf540f20e886cb2b5745dcded14e8b03db56ea9382942164a1c78b287ceb9b92edc8ff05b1a4620f4a73e91446bf654309e8614b7776ceeb3adc9420a55ca9c4e5608bdd7d16e45d49784738abeb49bda839bb0d18e14f2c82639e5a41136f8cde0058f925dea2e6d987adac8d7273715cd6b45c19bf187153be7814d1acfd5db0e46
88c58e98ea2c39e4309c1c2f48c2dc2a8e45e5855be3fe3479cda095eb8f8b556936ae7b992f291398e0dcf7ca13049ec575fcef49b62db962a450cd8a88ddca5959f589b6b7c1e5852d355a9f95da3bc2fad93fa4ba07d382df74f6af3d5376c263395c62a0becb3bed6b5039f1c2f2655deaf0d3a21f164287ba8a3eaaf1b6791faa829f7749ad90d436b6dbca46ca95e083392fccd168f2207132aef53815149915e6ea04f07e18957a9fc24e0baa5c771dcc2259c42859a5084185cad4c4ce0f95c74759dcbaab3ce128ab7c266e8d47db41f572a0b720704a02c7d1748df7c6665c2ce223fa015d705d8c1ad98152215e208daa67c266004e417300a0c6
