fffff319
00000375
fffff2f9
0000129a
0000133d
00000f6f
000011bf
0000116c
fffff371
000003b4
fffff6a7
00000e06
fffff6be
00000a64
000012fd
ffffed66
fffffa48
fffffb8d
000010f2
0000128d
00000da3
00000b53
00000861
0000035d
ffffed70
fffffd5b
00000835
fffff7a4
ffffef4b
ffffeeb1
00000d53
000011ea
fffff78a
00000b70
00000687
fffff4c2
fffffc18
fffff889
00000875
000008a2
ffffeca9
ffffee7a
fffffeb7
00000abd
fffff105
ffffee16
fffff0c8
ffffff72
fffff994
fffff5e8
00000263
000001d1
00000d43
00000890
000002a0
00000cbc
00000e7b
fffffa63
00000567
00001230
000012ec
00000f3a
000012d1
00000729
ffffff08
00000c33
fffffb41
000011b9
00000dcf
00000e8f
00000dda
00000017
fffff04e
fffff1b9
000002b3
000003ea
ffffee86
0000066f
000008cc
fffff01a
fffff562
fffff412
fffff998
000012b1
00000c28
fffff7e5
fffffaa1
000001d5
fffff13f
0000083e
0000103d
fffffff8
00000ee6
ffffff2b
0000071a
fffffeee
fffff5bc
fffff95b
00001108
000005ab
00000dff
fffffb59
fffff5df
ffffff78
0000001b
fffffd1c
ffffff54
00000ebc
00000fac
00001157
00000cf3
fffff3ca
00000e83
fffff8ab
fffffcf8
000000fe
fffff8f6
00000822
fffff132
0000107a
00000194
fffffc8d
000001ad
00000e69
00001315
ffffff0e
00000c6e
00000f4c
