f781a3a559fa982e75dc659eaed13465f5df3f00e664520c3107c62aaaa6fb9a7b3f999e46bbcc237a07e55023b48e3c8d4bc516a0e043f637193e83da9c396349afd4a1f3c7b4730af0c0cbc77422705915ab11d5bc5efd6ef7cc3875bc667a404d0d1f5310c268cb7c122a1051641fb61958aa1b61903765a2fc7aef8a2dfcbf15cb4947e2e22b55735d633304ead3dc36edabe07d1cb37b3ddbadb600e612
14e9372093cf5ca21646878043f298c03c37e1467a0c2cf36574df029fdbefb9f25a01a4252580423c6f7ea3896599f633991654bbda2b1ddf72ec6aecac528d7400a3f3710637e2a7b4ebd2621ee0fe78b41da40599c67747f2ba14e65a09430ed2680ba12cffcd71410bb4cf5b4ccb5b2a82e0fa3a62ec71f9df9b73186decd85b000def258013cb383777086a5aca8247f057728883d35b7a04ae3893a0da
1413308494f86e0a804139e30e710b4caf04bed8ff880fe034c2ee679f5c8e90bf39ad8471504a2d9f007b4edca076b37b93f56a10dfecdb9720de4662eaa607fa9123fa958b072009afe7c3049dbc6ea3a76afb05d709e55af34aeb470748e3838ed141c7f5e700e130424ded895a5d311ae9fec0cab35ffbd53e5f8202ade509fa836fd97be6895e559d486c4043bdaf4a21b32bb2d397b47a4c10562310d8
90ce7c30b280c8893e996e318d1d687bb2adf92cd2be324dcf053ee46a058d39dacbe0b028cded85b4c8b3fac1bf0309ecab0a73cc3367fe0ec2e098281bb415fde0ec1db97ac8eb4d6e2fa8e986061fe694e191d75cf75b3aaa2f3fad94ae81584e0f0d4ee1f34b9bd892fd48aaf6764e00a5633303d9d509294e8294bc2ad633fb59d9ddf2be62d974ff5a1c3e56bb783cf32dd42861bfeec651f6f4064a5e
babb9ceed242f4f4b1b36a30fb1276db085b4337faac51359f17a85638af537a8d83eaf55717a55f48ae1d96e4900d6fb6c263b96b4d80a83091eb0de61ab0302bdb9cf960f030eca082b18b07ea88310802df3e159e089f547650ca2a1a716d018dab9d90a1e792b95bfd95fe8431c4a4c764628eeed4b2d67dffc54d9ad65c0cb7e35e5bb9e012ce721ceacabc08a56a21081bc6270d312826d67aab6992bf
a10fe605857d6fcaecad987ab02422ac6c3f17579831bc9cb8ed65e5105bd2fa4327b6109a88a5ed401bca530af81cab7532e6bdb17ce5dbf5bb96cec57d1760d8bea20fd5053d4dd65eabb8b5e5c54dec6d2ff4369a38518fc8704961380b0e49386dd688fe08949e1d13cf4139c6404e977a89491809a5f748885908361a6842d38e05d2a4710eef27015c44e62eaef7ef281ba7b1c9d5253c37b71e60ddba
857e16a9f416244af5d4451944851674f0599bb5a8b7fb9a6590f9e5663e18f40f435aa88a6a6e0e953f2bcc99b26d4305c94c1f5ab0cce4bd8e7bd61252f5d1108e97624c46841dca2ae9601f5d0585e0c485df203259abd9f5ca935ba9ac77d754a274bd2d8da492001b48d0a61299abdfa65da6d711c8041922189856c0662f725e2ccfc62575e925b6046cab36cdcc5c0e045ba81f35d1fe8e2b551e9029
865341fde01f64e94c0b48b132575173a49740e78210c9ac320a1cf1b02d17d6f3d139f23a4355fa9ba6b1c18486b3be64c81afbf443621e780e17cea63240ca9edaa353f7d03fd727768d2db7110e5dabd5d675aa8d67069e71dceff487360dea4c7028703f490f49150404718fd7e9b7978e1369b8f34af826a850d9a27d1463a7edb4d8896b41510170bd181ebf96f1fdab47433a07fcc589c965e146665b
